<pad>	0
<unk>	0
<bos>	0
<eos>	0
<0x00>	0
<0x01>	0
<0x02>	0
<0x03>	0
<0x04>	0
<0x05>	0
<0x06>	0
<0x07>	0
<0x08>	0
<0x09>	0
<0x0A>	0
<0x0B>	0
<0x0C>	0
<0x0D>	0
<0x0E>	0
<0x0F>	0
<0x10>	0
<0x11>	0
<0x12>	0
<0x13>	0
<0x14>	0
<0x15>	0
<0x16>	0
<0x17>	0
<0x18>	0
<0x19>	0
<0x1A>	0
<0x1B>	0
<0x1C>	0
<0x1D>	0
<0x1E>	0
<0x1F>	0
<0x20>	0
<0x21>	0
<0x22>	0
<0x23>	0
<0x24>	0
<0x25>	0
<0x26>	0
<0x27>	0
<0x28>	0
<0x29>	0
<0x2A>	0
<0x2B>	0
<0x2C>	0
<0x2D>	0
<0x2E>	0
<0x2F>	0
<0x30>	0
<0x31>	0
<0x32>	0
<0x33>	0
<0x34>	0
<0x35>	0
<0x36>	0
<0x37>	0
<0x38>	0
<0x39>	0
<0x3A>	0
<0x3B>	0
<0x3C>	0
<0x3D>	0
<0x3E>	0
<0x3F>	0
<0x40>	0
<0x41>	0
<0x42>	0
<0x43>	0
<0x44>	0
<0x45>	0
<0x46>	0
<0x47>	0
<0x48>	0
<0x49>	0
<0x4A>	0
<0x4B>	0
<0x4C>	0
<0x4D>	0
<0x4E>	0
<0x4F>	0
<0x50>	0
<0x51>	0
<0x52>	0
<0x53>	0
<0x54>	0
<0x55>	0
<0x56>	0
<0x57>	0
<0x58>	0
<0x59>	0
<0x5A>	0
<0x5B>	0
<0x5C>	0
<0x5D>	0
<0x5E>	0
<0x5F>	0
<0x60>	0
<0x61>	0
<0x62>	0
<0x63>	0
<0x64>	0
<0x65>	0
<0x66>	0
<0x67>	0
<0x68>	0
<0x69>	0
<0x6A>	0
<0x6B>	0
<0x6C>	0
<0x6D>	0
<0x6E>	0
<0x6F>	0
<0x70>	0
<0x71>	0
<0x72>	0
<0x73>	0
<0x74>	0
<0x75>	0
<0x76>	0
<0x77>	0
<0x78>	0
<0x79>	0
<0x7A>	0
<0x7B>	0
<0x7C>	0
<0x7D>	0
<0x7E>	0
<0x7F>	0
<0x80>	0
<0x81>	0
<0x82>	0
<0x83>	0
<0x84>	0
<0x85>	0
<0x86>	0
<0x87>	0
<0x88>	0
<0x89>	0
<0x8A>	0
<0x8B>	0
<0x8C>	0
<0x8D>	0
<0x8E>	0
<0x8F>	0
<0x90>	0
<0x91>	0
<0x92>	0
<0x93>	0
<0x94>	0
<0x95>	0
<0x96>	0
<0x97>	0
<0x98>	0
<0x99>	0
<0x9A>	0
<0x9B>	0
<0x9C>	0
<0x9D>	0
<0x9E>	0
<0x9F>	0
<0xA0>	0
<0xA1>	0
<0xA2>	0
<0xA3>	0
<0xA4>	0
<0xA5>	0
<0xA6>	0
<0xA7>	0
<0xA8>	0
<0xA9>	0
<0xAA>	0
<0xAB>	0
<0xAC>	0
<0xAD>	0
<0xAE>	0
<0xAF>	0
<0xB0>	0
<0xB1>	0
<0xB2>	0
<0xB3>	0
<0xB4>	0
<0xB5>	0
<0xB6>	0
<0xB7>	0
<0xB8>	0
<0xB9>	0
<0xBA>	0
<0xBB>	0
<0xBC>	0
<0xBD>	0
<0xBE>	0
<0xBF>	0
<0xC0>	0
<0xC1>	0
<0xC2>	0
<0xC3>	0
<0xC4>	0
<0xC5>	0
<0xC6>	0
<0xC7>	0
<0xC8>	0
<0xC9>	0
<0xCA>	0
<0xCB>	0
<0xCC>	0
<0xCD>	0
<0xCE>	0
<0xCF>	0
<0xD0>	0
<0xD1>	0
<0xD2>	0
<0xD3>	0
<0xD4>	0
<0xD5>	0
<0xD6>	0
<0xD7>	0
<0xD8>	0
<0xD9>	0
<0xDA>	0
<0xDB>	0
<0xDC>	0
<0xDD>	0
<0xDE>	0
<0xDF>	0
<0xE0>	0
<0xE1>	0
<0xE2>	0
<0xE3>	0
<0xE4>	0
<0xE5>	0
<0xE6>	0
<0xE7>	0
<0xE8>	0
<0xE9>	0
<0xEA>	0
<0xEB>	0
<0xEC>	0
<0xED>	0
<0xEE>	0
<0xEF>	0
<0xF0>	0
<0xF1>	0
<0xF2>	0
<0xF3>	0
<0xF4>	0
<0xF5>	0
<0xF6>	0
<0xF7>	0
<0xF8>	0
<0xF9>	0
<0xFA>	0
<0xFB>	0
<0xFC>	0
<0xFD>	0
<0xFE>	0
<0xFF>	0
<|	-0
|>	-1
an	-2
st	-3
in	-4
er	-5
ran	-6
en	-7
est	-8
on	-9
be	-10
rant	-11
au	-12
aurant	-13
estaurant	-14
|><|	-15
ser	-16
▁t	-17
at	-18
end	-19
beg	-20
begin	-21
Restaurant	-22
Restaurants	-23
re	-24
user	-25
->	-26
ou	-27
▁a	-28
ion	-29
.<|	-30
▁th	-31
▁f	-32
li	-33
is	-34
ac	-35
▁p	-36
se	-37
or	-38
ar	-39
em	-40
me	-41
sy	-42
stem	-43
system	-44
▁w	-45
?<|	-46
ve	-47
tion	-48
▁in	-49
dst	-50
action	-51
ce	-52
it	-53
▁y	-54
▁you	-55
le	-56
▁to	-57
▁the	-58
oo	-59
▁c	-60
et	-61
",	-62
","	-63
▁for	-64
restaurant	-65
ex	-66
ing	-67
ke	-68
▁I	-69
res	-70
ter	-71
ast	-72
▁li	-73
▁is	-74
ent	-75
int	-76
ont	-77
▁m	-78
ic	-79
▁s	-80
ext	-81
ity	-82
intent	-83
ld	-84
ut	-85
▁an	-86
hat	-87
get	-88
▁n	-89
▁S	-90
▁re	-91
lie	-92
ate	-93
ance	-94
▁restaurant	-95
utter	-96
pon	-97
tar	-98
cont	-99
target	-100
context	-101
dsts	-102
last	-103
lief	-104
","<|	-105
ponse	-106
belief	-107
lastuser	-108
response	-109
utterance	-110
useraction	-111
ould	-112
▁e	-113
th	-114
RM	-115
ine	-116
ood	-117
▁o	-118
▁at	-119
ay	-120
▁reser	-121
NF	-122
▁h	-123
▁like	-124
ation	-125
▁C	-126
ere	-127
ind	-128
al	-129
co	-130
Th	-131
▁l	-132
vation	-133
ice	-134
▁d	-135
▁reservation	-136
▁M	-137
ant	-138
lea	-139
uis	-140
uisine	-141
serve	-142
city	-143
ime	-144
▁A	-145
▁g	-146
▁of	-147
nd	-148
▁F	-149
ook	-150
ll	-151
▁would	-152
▁that	-153
si	-154
us	-155
What	-156
ir	-157
ch	-158
▁P	-159
▁me	-160
▁eat	-161
▁pm	-162
▁ha	-163
▁and	-164
es	-165
▁food	-166
ame	-167
cuisine	-168
~<|	-169
▁San	-170
ab	-171
lease	-172
INF	-173
ORM	-174
INFORM	-175
day	-176
▁"	-177
|>"	-178
enddst	-179
enddsts	-180
|>","<|	-181
begindst	-182
begindsts	-183
endaction	-184
endbelief	-185
endintent	-186
endtarget	-187
endcontext	-188
beginaction	-189
beginbelief	-190
beginintent	-191
begintarget	-192
endlastuser	-193
endresponse	-194
begincontext	-195
beginlastuser	-196
beginresponse	-197
enduseraction	-198
beginuseraction	-199
▁B	-200
▁pl	-201
▁have	-202
rice	-203
ed	-204
ake	-205
▁want	-206
name	-207
ome	-208
▁plac	-209
ot	-210
▁Fran	-211
IRM	-212
▁are	-213
time	-214
able	-215
as	-216
▁do	-217
isco	-218
cisco	-219
The	-220
one	-221
▁Francisco	-222
ooking	-223
ge	-224
^~<|	-225
um	-226
▁b	-227
arch	-228
CO	-229
▁place	-230
RE	-231
ound	-232
usic	-233
art	-234
▁some	-235
ho	-236
▁be	-237
dd	-238
▁it	-239
▁they	-240
▁make	-241
▁city	-242
Re	-243
Do	-244
CONF	-245
CONFIRM	-246
▁lo	-247
qu	-248
ES	-249
▁any	-250
ress	-251
ican	-252
ddress	-253
range	-254
▁am	-255
▁table	-256
REQ	-257
arty	-258
▁Restaurant	-259
ze	-260
Reserve	-261
ak	-262
ber	-263
size	-264
party	-265
coho	-266
▁looking	-267
FF	-268
NT	-269
date	-270
cohol	-271
umber	-272
thing	-273
Yes	-274
op	-275
ow	-276
EST	-277
REQU	-278
REQUEST	-279
▁there	-280
▁loc	-281
ich	-282
ther	-283
▁good	-284
Find	-285
▁find	-286
ill	-287
onf	-288
ta	-289
▁pe	-290
onfir	-291
FindRestaurants	-292
ople	-293
▁people	-294
hich	-295
▁music	-296
▁k	-297
▁nice	-298
▁confir	-299
der	-300
▁live	-301
ated	-302
price	-303
here	-304
un	-305
▁what	-306
▁restaurants	-307
am	-308
▁time	-309
▁se	-310
▁located	-311
Please	-312
▁serve	-313
San	-314
▁al	-315
pe	-316
lp	-317
ven	-318
▁confirm	-319
▁Ch	-320
oder	-321
oderate	-322
reat	-323
ct	-324
▁address	-325
▁R	-326
lian	-327
▁kind	-328
ested	-329
▁number	-330
ER	-331
▁H	-332
OFF	-333
OFFER	-334
talian	-335
▁on	-336
hone	-337
▁today	-338
ly	-339
▁su	-340
There	-341
reet	-342
▁price	-343
▁found	-344
▁can	-345
lse	-346
▁else	-347
ad	-348
ai	-349
▁J	-350
▁please	-351
ue	-352
hould	-353
ri	-354
fer	-355
out	-356
mer	-357
to	-358
▁ty	-359
sl	-360
▁or	-361
leas	-362
▁Italian	-363
leasant	-364
merican	-365
▁type	-366
▁search	-367
▁great	-368
Can	-369
▁pre	-370
▁O	-371
ry	-372
▁The	-373
quested	-374
ots	-375
▁per	-376
slots	-377
requested	-378
requestedslots	-379
▁one	-380
ian	-381
▁should	-382
▁alcohol	-383
You	-384
▁T	-385
▁ne	-386
▁their	-387
▁prefer	-388
vening	-389
fe	-390
▁not	-391
and	-392
▁other	-393
~|	-394
alle	-395
▁W	-396
ur	-397
leasanton	-398
moderate	-399
hi	-400
Ok	-401
▁af	-402
▁American	-403
ith	-404
That	-405
alled	-406
▁called	-407
▁anything	-408
akl	-409
akland	-410
ks	-411
ap	-412
▁need	-413
▁with	-414
ushi	-415
▁What	-416
today	-417
▁reserve	-418
▁&	-419
▁evening	-420
live	-421
▁will	-422
▁this	-423
▁which	-424
ENT	-425
INT	-426
ndian	-427
INTENT	-428
exican	-429
▁D	-430
ie	-431
serves	-432
alcohol	-433
No	-434
ose	-435
pen	-436
elp	-437
▁G	-438
▁St	-439
▁past	-440
▁your	-441
▁phone	-442
no	-443
ro	-444
▁help	-445
▁Indian	-446
iz	-447
▁i	-448
izz	-449
ver	-450
where	-451
street	-452
sive	-453
expen	-454
expensive	-455
inese	-456
ist	-457
gh	-458
Is	-459
▁go	-460
ounds	-461
▁Bar	-462
▁something	-463
ure	-464
▁after	-465
▁Jose	-466
▁March	-467
ese	-468
ght	-469
amp	-470
itas	-471
noon	-472
orre	-473
▁Sushi	-474
▁Mexican	-475
▁cuisine	-476
gg	-477
▁Pleasanton	-478
anese	-479
Okay	-480
▁sugg	-481
Sure	-482
ilp	-483
ilpitas	-484
izza	-485
▁And	-486
▁wor	-487
▁suggest	-488
▁somewhere	-489
has	-490
music	-491
address	-492
▁Oakland	-493
ish	-494
orrect	-495
▁sounds	-496
ateo	-497
▁Mateo	-498
▁Al	-499
▁Is	-500
fect	-501
Tr	-502
True	-503
▁book	-504
▁correct	-505
▁afternoon	-506
▁Can	-507
▁ab	-508
oun	-509
ost	-510
lar	-511
Which	-512
bl	-513
▁Street	-514
▁perfect	-515
AFF	-516
quor	-517
▁out	-518
AFFIRM	-519
▁ano	-520
▁another	-521
ail	-522
sian	-523
el	-524
▁Do	-525
▁look	-526
▁Chinese	-527
son	-528
NO	-529
▁Br	-530
Would	-531
▁person	-532
ard	-533
so	-534
▁next	-535
▁liquor	-536
for	-537
phone	-538
number	-539
BY	-540
GO	-541
OD	-542
ra	-543
BYE	-544
GOOD	-545
GOODBYE	-546
bell	-547
ampbell	-548
▁moderate	-549
▁E	-550
▁L	-551
▁about	-552
▁Th	-553
ubl	-554
ublin	-555
up	-556
os	-557
ell	-558
▁You	-559
apanese	-560
▁as	-561
▁Par	-562
NE	-563
^~|	-564
TH	-565
anta	-566
ces	-567
▁inter	-568
▁Please	-569
▁ver	-570
oll	-571
They	-572
▁was	-573
ollow	-574
▁follow	-575
▁following	-576
ny	-577
ning	-578
orry	-579
fie	-580
▁N	-581
AN	-582
OU	-583
ANK	-584
YOU	-585
ley	-586
erke	-587
▁has	-588
THANK	-589
erkeley	-590
▁serves	-591
afe	-592
▁works	-593
▁priced	-594
om	-595
right	-596
▁Japanese	-597
▁range	-598
▁Milpitas	-599
anks	-600
ally	-601
ina	-602
Ch	-603
ea	-604
▁don	-605
uno	-606
▁Bruno	-607
ia	-608
alf	-609
ption	-610
ner	-611
FY	-612
TI	-613
▁ch	-614
NOTI	-615
ails	-616
▁det	-617
NOTIFY	-618
▁details	-619
▁City	-620
uma	-621
Your	-622
etal	-623
March	-624
etaluma	-625
Where	-626
▁option	-627
if	-628
fu	-629
mm	-630
▁How	-631
▁them	-632
orning	-633
▁booking	-634
▁very	-635
▁places	-636
isto	-637
rante	-638
▁Risto	-639
▁Ristorante	-640
ger	-641
urger	-642
lara	-643
▁Clara	-644
▁Dublin	-645
▁so	-646
▁day	-647
▁also	-648
FO	-649
Their	-650
▁cost	-651
▁K	-652
ung	-653
▁Hill	-654
▁Campbell	-655
AT	-656
It	-657
ATE	-658
NEG	-659
air	-660
▁if	-661
field	-662
venue	-663
NEGATE	-664
airfield	-665
pec	-666
▁Cuisine	-667
▁Ro	-668
cess	-669
▁name	-670
▁morning	-671
CT	-672
EL	-673
ECT	-674
SEL	-675
ive	-676
ree	-677
▁din	-678
SELECT	-679
tain	-680
▁suc	-681
In	-682
▁where	-683
ore	-684
Some	-685
ving	-686
▁Avenue	-687
lo	-688
onth	-689
ount	-690
▁month	-691
▁spec	-692
▁options	-693
Are	-694
act	-695
Pleasanton	-696
ga	-697
▁suggestion	-698
CC	-699
SU	-700
ck	-701
ESS	-702
SUCC	-703
▁all	-704
▁but	-705
▁Pizza	-706
SUCCESS	-707
▁preferen	-708
▁An	-709
istro	-710
cessfu	-711
ade	-712
ang	-713
▁made	-714
▁Berkeley	-715
io	-716
aya	-717
zak	-718
▁It	-719
zakaya	-720
mi	-721
▁right	-722
arden	-723
▁been	-724
Any	-725
comm	-726
▁mood	-727
commend	-728
▁recommend	-729
ali	-730
Great	-731
▁Santa	-732
Oakland	-733
▁successfu	-734
How	-735
uan	-736
▁Italiano	-737
iew	-738
next	-739
▁cont	-740
▁interested	-741
ight	-742
▁try	-743
▁Petaluma	-744
ungry	-745
▁hungry	-746
..	-747
de	-748
ne	-749
▁get	-750
Al	-751
ino	-752
▁pasta	-753
urs	-754
ursday	-755
eah	-756
now	-757
▁know	-758
ank	-759
Yeah	-760
▁Cafe	-761
▁Park	-762
American	-763
▁no	-764
▁Mint	-765
▁prices	-766
▁suggestions	-767
▁my	-768
▁fine	-769
Fal	-770
False	-771
▁love	-772
ountain	-773
▁costly	-774
▁Thursday	-775
COU	-776
COUNT	-777
count	-778
▁inexpensive	-779
af	-780
ik	-781
all	-782
▁work	-783
▁Garden	-784
ead	-785
▁They	-786
▁Bistro	-787
akf	-788
alo	-789
ili	-790
imi	-791
ink	-792
our	-793
chen	-794
▁Kit	-795
reakf	-796
▁Which	-797
reakfast	-798
▁Kitchen	-799
▁we	-800
ater	-801
ouse	-802
▁Alto	-803
▁contact	-804
Sorry	-805
▁There	-806
ave	-807
ling	-808
▁could	-809
ong	-810
▁tell	-811
▁specif	-812
ably	-813
▁meet	-814
aiw	-815
arter	-816
aiwanese	-817
▁cho	-818
oster	-819
▁choice	-820
▁preference	-821
▁r	-822
are	-823
ked	-824
med	-825
riend	-826
ok	-827
ust	-828
▁un	-829
ually	-830
At	-831
amen	-832
▁does	-833
▁China	-834
For	-835
eel	-836
adis	-837
▁One	-838
esday	-839
Chinese	-840
▁Paradis	-841
▁expensive	-842
MO	-843
les	-844
MORE	-845
▁cra	-846
oodles	-847
▁affor	-848
quarter	-849
▁craving	-850
Asian	-851
onday	-852
▁here	-853
▁thanks	-854
Milpitas	-855
▁Fairfield	-856
AL	-857
TS	-858
bec	-859
ALTS	-860
becue	-861
▁Thai	-862
Thanks	-863
oga	-864
▁st	-865
Have	-866
alist	-867
alistoga	-868
SFO	-869
red	-870
eria	-871
half	-872
evening	-873
▁boo	-874
▁mat	-875
▁say	-876
Santa	-877
▁booked	-878
the	-879
hner	-880
▁Sou	-881
▁pro	-882
hnert	-883
▁play	-884
▁sorry	-885
ix	-886
po	-887
let	-888
aking	-889
ctually	-890
ert	-891
lev	-892
row	-893
asta	-894
▁Red	-895
oulev	-896
upert	-897
oulevard	-898
upertino	-899
▁Paradise	-900
amb	-901
▁give	-902
Italian	-903
▁date	-904
▁specific	-905
tun	-906
ately	-907
▁feel	-908
tunately	-909
ki	-910
uch	-911
▁area	-912
▁much	-913
▁eating	-914
inexpensive	-915
gan	-916
her	-917
▁ex	-918
ange	-919
▁dine	-920
Campbell	-921
▁location	-922
ek	-923
▁Y	-924
▁v	-925
icu	-926
mor	-927
ona	-928
rem	-929
▁fish	-930
▁part	-931
▁week	-932
▁wish	-933
icular	-934
morrow	-935
remont	-936
▁match	-937
▁particular	-938
arl	-939
ems	-940
rom	-941
▁up	-942
sist	-943
▁now	-944
riday	-945
▁cafe	-946
▁from	-947
▁seems	-948
▁assist	-949
▁friend	-950
▁Izakaya	-951
▁ah	-952
▁SFO	-953
▁best	-954
▁ahead	-955
▁Monday	-956
ani	-957
▁ok	-958
▁Mal	-959
onald	-960
▁meal	-961
▁named	-962
▁really	-963
▁successful	-964
Wh	-965
▁by	-966
unan	-967
vail	-968
Reser	-969
▁half	-970
▁mind	-971
vailable	-972
Reservation	-973
ats	-974
eik	-975
eiko	-976
fortunately	-977
lac	-978
▁dr	-979
Look	-980
care	-981
dont	-982
hall	-983
▁Che	-984
Pizza	-985
Sushi	-986
riake	-987
uesday	-988
▁pricey	-989
dontcare	-990
▁Boulevard	-991
▁available	-992
ud	-993
any	-994
con	-995
Thank	-996
ether	-997
▁Also	-998
▁such	-999
Alright	-1000
Berkeley	-1001
An	-1002
Make	-1003
▁pos	-1004
China	-1005
▁more	-1006
▁near	-1007
▁dinner	-1008
""	-1009
SF	-1010
clo	-1011
ort	-1012
NONE	-1013
clock	-1014
melie	-1015
▁Road	-1016
▁okay	-1017
▁South	-1018
Mexican	-1019
▁Rohnert	-1020
▁tomorrow	-1021
hw	-1022
bra	-1023
lly	-1024
pic	-1025
brae	-1026
reshw	-1027
▁Where	-1028
illbrae	-1029
▁Friday	-1030
▁unable	-1031
reshwater	-1032
ide	-1033
▁Co	-1034
▁Gr	-1035
Could	-1036
Dublin	-1037
adable	-1038
urling	-1039
▁Grill	-1040
▁think	-1041
▁Foster	-1042
▁change	-1043
urlingame	-1044
▁afforadable	-1045
ati	-1046
dian	-1047
otati	-1048
usion	-1049
▁Pasta	-1050
▁feeling	-1051
▁Pleasant	-1052
afa	-1053
▁Mc	-1054
wood	-1055
▁Palo	-1056
▁dining	-1057
▁street	-1058
▁Calistoga	-1059
▁confirmed	-1060
ag	-1061
sib	-1062
astro	-1063
burger	-1064
▁thing	-1065
▁Fusion	-1066
▁possib	-1067
▁Mountain	-1068
▁SF	-1069
▁tw	-1070
▁mom	-1071
Izakaya	-1072
▁moment	-1073
▁Booking	-1074
go	-1075
eli	-1076
▁wh	-1077
lace	-1078
reek	-1079
▁Cha	-1080
asser	-1081
▁Some	-1082
▁Chang	-1083
▁Olive	-1084
▁Their	-1085
▁pizza	-1086
asserie	-1087
▁Brasserie	-1088
So	-1089
unch	-1090
akist	-1091
▁Chef	-1092
▁Pizz	-1093
Should	-1094
aysian	-1095
▁Asian	-1096
▁House	-1097
Petaluma	-1098
akistani	-1099
▁meeting	-1100
▁Pizzeria	-1101
▁preferred	-1102
▁successfully	-1103
And	-1104
app	-1105
eak	-1106
rit	-1107
▁Ta	-1108
Will	-1109
orth	-1110
vern	-1111
▁che	-1112
▁Does	-1113
▁That	-1114
▁Wine	-1115
▁North	-1116
▁Tavern	-1117
▁making	-1118
ambo	-1119
ambodian	-1120
ni	-1121
Bar	-1122
picy	-1123
▁its	-1124
▁won	-1125
▁sound	-1126
▁burger	-1127
Barbecue	-1128
Taiwanese	-1129
lf	-1130
ob	-1131
Red	-1132
abi	-1133
ami	-1134
bar	-1135
osa	-1136
atsu	-1137
ffie	-1138
ical	-1139
ster	-1140
conom	-1141
organ	-1142
pizza	-1143
▁Rosa	-1144
▁plan	-1145
▁Would	-1146
▁econom	-1147
▁searching	-1148
▁economical	-1149
il	-1150
ain	-1151
amar	-1152
lice	-1153
what	-1154
▁bit	-1155
ampas	-1156
house	-1157
ourse	-1158
▁Main	-1159
Sounds	-1160
▁Fremont	-1161
▁quarter	-1162
Un	-1163
aci	-1164
age	-1165
isi	-1166
aybe	-1167
▁fit	-1168
▁ton	-1169
ample	-1170
▁example	-1171
▁tonight	-1172
id	-1173
Fish	-1174
bany	-1175
▁Ran	-1176
afael	-1177
▁prov	-1178
▁Meiko	-1179
▁three	-1180
▁Rafael	-1181
▁whether	-1182
▁possible	-1183
▁Taiwanese	-1184
▁preferably	-1185
AI	-1186
LU	-1187
FAI	-1188
▁Yu	-1189
LURE	-1190
atin	-1191
iate	-1192
arlos	-1193
ichuan	-1194
▁needs	-1195
FAILURE	-1196
ternoon	-1197
▁Carlos	-1198
▁Noodles	-1199
▁interest	-1200
by	-1201
Yup	-1202
eaf	-1203
Palo	-1204
ason	-1205
eafood	-1206
▁Steak	-1207
▁meets	-1208
Noodles	-1209
▁Cotati	-1210
▁nearby	-1211
▁reason	-1212
▁wonder	-1213
▁actually	-1214
▁Pakistani	-1215
▁Reservation	-1216
cy	-1217
als	-1218
omp	-1219
When	-1220
ancy	-1221
▁Imm	-1222
▁two	-1223
▁able	-1224
▁suit	-1225
ortals	-1226
▁drink	-1227
▁fancy	-1228
▁Ariake	-1229
▁provide	-1230
Cupertino	-1231
▁Immortals	-1232
Unfortunately	-1233
To	-1234
etc	-1235
ify	-1236
▁To	-1237
Thai	-1238
form	-1239
▁etc	-1240
▁Make	-1241
▁inform	-1242
▁persons	-1243
Fairfield	-1244
gi	-1245
ala	-1246
ren	-1247
▁Ba	-1248
▁Po	-1249
elve	-1250
inez	-1251
logi	-1252
orean	-1253
rench	-1254
thern	-1255
▁West	-1256
▁band	-1257
donald	-1258
pologi	-1259
▁Chili	-1260
▁later	-1261
artinez	-1262
▁Amelie	-1263
Se	-1264
va	-1265
▁,	-1266
...	-1267
ach	-1268
apa	-1269
ena	-1270
onc	-1271
tio	-1272
ump	-1273
▁Go	-1274
▁ar	-1275
Does	-1276
abar	-1277
enus	-1278
lies	-1279
nyva	-1280
▁Hel	-1281
▁how	-1282
tioch	-1283
▁Chil	-1284
▁Mimi	-1285
▁well	-1286
nyvale	-1287
▁offer	-1288
▁ramen	-1289
▁reach	-1290
umpling	-1291
▁Helena	-1292
unnyvale	-1293
▁Malabar	-1294
▁Chillies	-1295
▁Millbrae	-1296
▁Burlingame	-1297
Hi	-1298
ful	-1299
rab	-1300
exas	-1301
▁bite	-1302
▁Effie	-1303
astrobar	-1304
▁Tuesday	-1305
▁information	-1306
tt	-1307
itu	-1308
▁La	-1309
▁Ras	-1310
Olive	-1311
Spicy	-1312
▁situ	-1313
Search	-1314
▁going	-1315
▁verify	-1316
▁Cupertino	-1317
▁reasonably	-1318
My	-1319
ope	-1320
ord	-1321
yle	-1322
▁pr	-1323
iner	-1324
▁lot	-1325
▁low	-1326
▁six	-1327
oncord	-1328
▁might	-1329
mediate	-1330
▁apologi	-1331
▁Barbecue	-1332
▁breakfast	-1333
▁preferences	-1334
▁intermediate	-1335
aln	-1336
ana	-1337
ico	-1338
▁Mi	-1339
▁en	-1340
Give	-1341
agio	-1342
gain	-1343
Hunan	-1344
alnut	-1345
▁Bell	-1346
Foster	-1347
▁Creek	-1348
▁again	-1349
▁Alamar	-1350
▁Morgan	-1351
▁Seafood	-1352
afternoon	-1353
▁Bellagio	-1354
Try	-1355
ora	-1356
que	-1357
uki	-1358
yes	-1359
▁Any	-1360
stead	-1361
▁Fish	-1362
▁sure	-1363
▁Hunan	-1364
▁Matsu	-1365
▁Burger	-1366
▁couldn	-1367
▁planning	-1368
Of	-1369
Ro	-1370
mp	-1371
ark	-1372
dam	-1373
ett	-1374
▁In	-1375
inad	-1376
appar	-1377
iliki	-1378
▁Your	-1379
obster	-1380
ungdam	-1381
▁Chett	-1382
▁course	-1383
▁Chungdam	-1384
Freshwater	-1385
▁Chettinad	-1386
la	-1387
ti	-1388
Let	-1389
ern	-1390
tty	-1391
acos	-1392
ello	-1393
ongr	-1394
rive	-1395
urry	-1396
▁For	-1397
▁Per	-1398
▁top	-1399
icing	-1400
place	-1401
▁fits	-1402
▁four	-1403
▁cheap	-1404
▁Albany	-1405
▁pretty	-1406
▁pricing	-1407
▁Cambodian	-1408
▁wonderful	-1409
lk	-1410
oi	-1411
oy	-1412
▁.	-1413
▁u	-1414
ato	-1415
nia	-1416
uck	-1417
▁ti	-1418
elia	-1419
slam	-1420
urus	-1421
▁Mer	-1422
▁Ram	-1423
leven	-1424
▁Ever	-1425
▁Hong	-1426
▁Ming	-1427
▁Polk	-1428
▁aver	-1429
▁crit	-1430
▁view	-1431
alifor	-1432
onfirm	-1433
▁Rasoi	-1434
urusato	-1435
▁Everest	-1436
▁average	-1437
▁instead	-1438
alifornia	-1439
▁criteria	-1440
▁Malaysian	-1441
If	-1442
ba	-1443
rd	-1444
uc	-1445
▁-	-1446
liz	-1447
tor	-1448
blem	-1449
hree	-1450
isit	-1451
mami	-1452
side	-1453
▁Are	-1454
▁got	-1455
ializ	-1456
▁Andy	-1457
▁Cala	-1458
Donald	-1459
▁Alice	-1460
▁foods	-1461
▁thank	-1462
▁visit	-1463
▁lovely	-1464
▁outside	-1465
▁problem	-1466
Somewhere	-1467
▁Roadhouse	-1468
▁specializ	-1469
▁Freshwater	-1470
ah	-1471
pp	-1472
xx	-1473
Gay	-1474
One	-1475
aps	-1476
che	-1477
iop	-1478
low	-1479
▁cl	-1480
Take	-1481
ddis	-1482
lden	-1483
rixx	-1484
▁Pun	-1485
▁Tea	-1486
▁Wok	-1487
dable	-1488
ering	-1489
thiop	-1490
▁call	-1491
▁only	-1492
▁rest	-1493
▁Texas	-1494
▁close	-1495
▁Chalet	-1496
▁around	-1497
Pleasant	-1498
lowering	-1499
thiopian	-1500
Gastrobar	-1501
▁situated	-1502
▁affordable	-1503
Mc	-1504
aw	-1505
cl	-1506
ass	-1507
awa	-1508
iki	-1509
rat	-1510
▁El	-1511
Mimi	-1512
cell	-1513
clud	-1514
ines	-1515
▁Say	-1516
▁bud	-1517
▁let	-1518
▁men	-1519
amboo	-1520
toria	-1521
welve	-1522
▁Find	-1523
▁Trat	-1524
▁Will	-1525
▁simi	-1526
▁then	-1527
emongr	-1528
▁Chaat	-1529
▁Drive	-1530
▁Ramon	-1531
▁Torre	-1532
▁tired	-1533
Redwood	-1534
cellent	-1535
▁Sayang	-1536
▁budget	-1537
▁includ	-1538
▁others	-1539
▁matches	-1540
▁similar	-1541
Calistoga	-1542
emongrass	-1543
▁Martinez	-1544
▁Trattoria	-1545
lt	-1546
Sou	-1547
aba	-1548
arh	-1549
iov	-1550
ult	-1551
▁At	-1552
▁Ir	-1553
Just	-1554
alal	-1555
anni	-1556
mber	-1557
sake	-1558
▁Cor	-1559
▁Don	-1560
▁res	-1561
quest	-1562
▁Giov	-1563
▁Napa	-1564
▁comp	-1565
▁take	-1566
Bistro	-1567
arhaba	-1568
▁Halal	-1569
▁Table	-1570
▁maybe	-1571
▁Corner	-1572
▁result	-1573
▁trying	-1574
▁complet	-1575
▁Giovanni	-1576
▁Sunnyvale	-1577
Oh	-1578
Oz	-1579
ux	-1580
ara	-1581
lau	-1582
ral	-1583
way	-1584
▁De	-1585
▁us	-1586
asto	-1587
enni	-1588
ment	-1589
ontr	-1590
umba	-1591
▁hit	-1592
Ozora	-1593
▁Deli	-1594
▁Nara	-1595
entral	-1596
ukilau	-1597
▁bands	-1598
Fremont	-1599
ennigan	-1600
ontrasto	-1601
▁Delices	-1602
▁Redwood	-1603
▁Sichuan	-1604
Breakfast	-1605
▁including	-1606
▁unfortunately	-1607
St	-1608
da	-1609
ec	-1610
ew	-1611
fr	-1612
Chi	-1613
Mal	-1614
edn	-1615
iry	-1616
oup	-1617
per	-1618
pot	-1619
▁Sa	-1620
alad	-1621
bisi	-1622
chio	-1623
ddle	-1624
eter	-1625
inks	-1626
rand	-1627
▁Aix	-1628
Chili	-1629
Forno	-1630
Latin	-1631
ameda	-1632
ewark	-1633
runch	-1634
▁east	-1635
▁fran	-1636
▁spot	-1637
Ariake	-1638
ecchio	-1639
frican	-1640
ussian	-1641
▁Peter	-1642
▁Saint	-1643
isibisi	-1644
▁drinks	-1645
▁locate	-1646
Actually	-1647
ednesday	-1648
▁Concord	-1649
▁eastern	-1650
Malaysian	-1651
▁anywhere	-1652
▁francisco	-1653
▁reservations	-1654
▁recommendation	-1655
Mi	-1656
ash	-1657
edu	-1658
era	-1659
ito	-1660
ond	-1661
ory	-1662
Half	-1663
Nope	-1664
abla	-1665
apas	-1666
enda	-1667
irlf	-1668
oose	-1669
read	-1670
▁fur	-1671
▁sch	-1672
▁set	-1673
▁yes	-1674
anera	-1675
chito	-1676
edule	-1677
ounge	-1678
ramen	-1679
▁Crab	-1680
▁Haci	-1681
▁Take	-1682
Amelie	-1683
Indian	-1684
▁Andes	-1685
▁Bread	-1686
▁Shall	-1687
▁Tapas	-1688
▁girlf	-1689
Antioch	-1690
Confirm	-1691
▁Lounge	-1692
▁Walnut	-1693
Japanese	-1694
Millbrae	-1695
▁further	-1696
▁request	-1697
▁Hacienda	-1698
▁Ranchito	-1699
▁schedule	-1700
▁Breakfast	-1701
▁Something	-1702
▁girlfriend	-1703
Ex	-1704
La	-1705
ei	-1706
ep	-1707
ov	-1708
wn	-1709
Pun	-1710
ire	-1711
ita	-1712
pan	-1713
▁Wu	-1714
aude	-1715
icco	-1716
ting	-1717
▁?<|	-1718
▁Anh	-1719
▁Aut	-1720
▁Emp	-1721
▁Gay	-1722
▁dif	-1723
▁see	-1724
Found	-1725
Hello	-1726
Meiko	-1727
beque	-1728
isian	-1729
ovina	-1730
perto	-1731
▁Fang	-1732
▁town	-1733
French	-1734
entico	-1735
ferent	-1736
icicco	-1737
panish	-1738
uanita	-1739
▁Aslam	-1740
▁Latin	-1741
▁Maude	-1742
▁Maybe	-1743
▁Style	-1744
▁check	-1745
▁diner	-1746
▁doesn	-1747
▁exact	-1748
▁party	-1749
Lobster	-1750
▁Empire	-1751
▁Miliki	-1752
Anything	-1753
Dumpling	-1754
Southern	-1755
▁getting	-1756
▁specify	-1757
Excellent	-1758
Something	-1759
▁Barbeque	-1760
▁McDonald	-1761
▁Mcdonald	-1762
Burlingame	-1763
▁Autentico	-1764
▁different	-1765
▁assistance	-1766
He	-1767
Hey	-1768
Ras	-1769
sia	-1770
▁qu	-1771
Rasa	-1772
adai	-1773
aste	-1774
ough	-1775
ppen	-1776
rave	-1777
▁Gin	-1778
▁ser	-1779
Celia	-1780
appak	-1781
pasta	-1782
uanas	-1783
▁Asia	-1784
▁once	-1785
▁sort	-1786
▁Brixx	-1787
▁lunch	-1788
▁shall	-1789
▁tacos	-1790
▁these	-1791
Sichuan	-1792
stampas	-1793
▁garden	-1794
▁happen	-1795
Furusato	-1796
Mountain	-1797
Cambodian	-1798
appakadai	-1799
breakfast	-1800
▁Peruanas	-1801
▁suitable	-1802
▁visiting	-1803
▁apologize	-1804
▁someplace	-1805
Ba	-1806
aid	-1807
ird	-1808
lue	-1809
oto	-1810
poh	-1811
ilip	-1812
maid	-1813
pply	-1814
ties	-1815
yoto	-1816
zche	-1817
▁Dai	-1818
▁Dog	-1819
▁Wah	-1820
Alice	-1821
Diner	-1822
Mount	-1823
Umami	-1824
ental	-1825
ingap	-1826
ertain	-1827
▁Place	-1828
▁Shree	-1829
▁Today	-1830
▁taste	-1831
Rohnert	-1832
Whether	-1833
ilipino	-1834
riental	-1835
zcheuan	-1836
▁Castro	-1837
▁French	-1838
▁supply	-1839
Mcdonald	-1840
▁Mermaid	-1841
▁cheaper	-1842
▁willing	-1843
Contrasto	-1844
▁Southern	-1845
▁mountain	-1846
ingaporean	-1847
▁Steakhouse	-1848
kl	-1849
Hot	-1850
May	-1851
Per	-1852
cad	-1853
emy	-1854
how	-1855
oma	-1856
▁On	-1857
▁Re	-1858
alen	-1859
cost	-1860
ever	-1861
klin	-1862
more	-1863
▁Cam	-1864
▁Pal	-1865
▁Tok	-1866
▁bus	-1867
Osake	-1868
iness	-1869
▁Lake	-1870
▁Real	-1871
▁side	-1872
▁star	-1873
cademy	-1874
▁Addis	-1875
Perfect	-1876
▁Camino	-1877
▁Making	-1878
▁Paloma	-1879
▁Pampas	-1880
▁needed	-1881
▁cooking	-1882
▁Franklin	-1883
▁business	-1884
▁matching	-1885
▁Ethiopian	-1886
▁Flowering	-1887
▁California	-1888
▁specializing	-1889
nw	-1890
uy	-1891
yo	-1892
zi	-1893
Bei	-1894
Bra	-1895
hop	-1896
lic	-1897
lla	-1898
nwr	-1899
obs	-1900
sla	-1901
▁Ok	-1902
aged	-1903
tone	-1904
▁Kab	-1905
▁buy	-1906
▁man	-1907
▁rat	-1908
Brazi	-1909
bster	-1910
cknwr	-1911
curry	-1912
▁Ange	-1913
▁Comp	-1914
▁Here	-1915
▁Just	-1916
▁Yuan	-1917
▁same	-1918
Aperto	-1919
Burger	-1920
illage	-1921
twelve	-1922
▁Aniki	-1923
▁Diner	-1924
▁Grand	-1925
▁Greek	-1926
▁Okawa	-1927
▁among	-1928
▁sushi	-1929
Central	-1930
Juanita	-1931
coholic	-1932
tonella	-1933
▁Kabobs	-1934
cknwraps	-1935
▁Antioch	-1936
▁Company	-1937
▁managed	-1938
Brazilian	-1939
▁alcoholic	-1940
▁Lemongrass	-1941
.|	-1942
Aq	-1943
ub	-1944
Ano	-1945
ann	-1946
arb	-1947
bon	-1948
ess	-1949
sie	-1950
▁AM	-1951
▁If	-1952
▁No	-1953
Andy	-1954
Dash	-1955
cann	-1956
gard	-1957
▁May	-1958
▁Pot	-1959
▁Pub	-1960
▁did	-1961
Matsu	-1962
Price	-1963
Ramen	-1964
arbor	-1965
astic	-1966
dated	-1967
▁Baan	-1968
▁Baci	-1969
▁Cook	-1970
▁Golf	-1971
▁Hana	-1972
▁Stix	-1973
▁Time	-1974
▁grab	-1975
▁menu	-1976
Cotati	-1977
iryani	-1978
ourbon	-1979
tioned	-1980
▁Gumba	-1981
▁Irish	-1982
▁chang	-1983
▁enter	-1984
▁liked	-1985
▁pearl	-1986
▁those	-1987
Another	-1988
Tuesday	-1989
▁Course	-1990
▁Harbor	-1991
▁Mccann	-1992
▁regard	-1993
antastic	-1994
tainment	-1995
▁Marhaba	-1996
▁certain	-1997
▁chinese	-1998
▁updated	-1999
▁complete	-2000
▁apologies	-2001
▁entertainment	-2002
.?	-2003
En	-2004
Ya	-2005
All	-2006
Che	-2007
ean	-2008
six	-2009
▁Li	-2010
Blue	-2011
Book	-2012
Here	-2013
edit	-2014
lier	-2015
▁Aux	-2016
▁Rom	-2017
Amber	-2018
Shall	-2019
alley	-2020
erran	-2021
Albany	-2022
Morgan	-2023
▁curry	-2024
▁night	-2025
▁style	-2026
▁Bamboo	-2027
▁Golden	-2028
▁Liquor	-2029
▁Newark	-2030
▁Romana	-2031
Risibisi	-2032
erranean	-2033
milpitas	-2034
▁Alameda	-2035
▁Hukilau	-2036
Fantastic	-2037
▁Bennigan	-2038
▁costlier	-2039
▁wednesday	-2040
editerranean	-2041
Go	-2042
We	-2043
nt	-2044
pt	-2045
tr	-2046
we	-2047
lis	-2048
opo	-2049
pes	-2050
rau	-2051
Napa	-2052
aine	-2053
ence	-2054
erwe	-2055
ries	-2056
view	-2057
▁Ala	-2058
▁Las	-2059
▁Let	-2060
▁Pos	-2061
▁Squ	-2062
▁iss	-2063
▁und	-2064
asian	-2065
raunt	-2066
tropo	-2067
▁Feel	-2068
▁Fico	-2069
▁Font	-2070
▁done	-2071
▁free	-2072
Alamar	-2073
Golden	-2074
arting	-2075
▁Ramen	-2076
▁Spicy	-2077
▁Tabla	-2078
▁costa	-2079
▁seats	-2080
▁types	-2081
▁Panera	-2082
▁Square	-2083
▁choose	-2084
▁contra	-2085
▁review	-2086
▁twelve	-2087
Martinez	-2088
erweight	-2089
tropolis	-2090
▁Positas	-2091
▁Spanish	-2092
Sunnyvale	-2093
▁Actually	-2094
▁Fontaine	-2095
▁milpitas	-2096
▁starting	-2097
▁boulevard	-2098
▁restraunt	-2099
▁metropolis	-2100
▁underweight	-2101
te	-2102
..?	-2103
ddi	-2104
ery	-2105
ets	-2106
fly	-2107
los	-2108
rea	-2109
ria	-2110
som	-2111
uca	-2112
und	-2113
usb	-2114
▁Di	-2115
Show	-2116
afri	-2117
anqu	-2118
ateg	-2119
elot	-2120
eppo	-2121
fish	-2122
hatt	-2123
lion	-2124
otte	-2125
take	-2126
veni	-2127
yafa	-2128
▁..?	-2129
▁Din	-2130
▁Tai	-2131
▁use	-2132
THere	-2133
Whats	-2134
ither	-2135
salad	-2136
unday	-2137
urant	-2138
▁Blos	-2139
▁Erit	-2140
▁Fill	-2141
▁Fine	-2142
▁Have	-2143
▁addi	-2144
▁hope	-2145
▁husb	-2146
▁were	-2147
Bamboo	-2148
Middle	-2149
Walnut	-2150
brunch	-2151
eleven	-2152
elotti	-2153
ottega	-2154
▁Banqu	-2155
▁Beppo	-2156
▁Crave	-2157
▁Great	-2158
▁Shatt	-2159
▁asian	-2160
▁categ	-2161
African	-2162
Concord	-2163
Russian	-2164
afrique	-2165
▁Cheese	-2166
▁Dining	-2167
▁Lovina	-2168
▁Should	-2169
▁Thanks	-2170
utterfly	-2171
▁Blossom	-2172
▁Bottega	-2173
▁Dicicco	-2174
▁Eritrea	-2175
▁costing	-2176
▁husband	-2177
▁tuesday	-2178
▁without	-2179
▁Banquets	-2180
▁Fillmore	-2181
▁Shattuck	-2182
▁addition	-2183
▁category	-2184
California	-2185
▁wondering	-2186
▁Aappakadai	-2187
▁recommendations	-2188
bs	-2189
ca	-2190
he	-2191
sp	-2192
Han	-2193
Par	-2194
aka	-2195
ari	-2196
blo	-2197
com	-2198
ety	-2199
gus	-2200
lls	-2201
nat	-2202
oku	-2203
uct	-2204
ull	-2205
uni	-2206
▁Em	-2207
▁Os	-2208
▁Pe	-2209
▁RE	-2210
Alta	-2211
Cala	-2212
Food	-2213
Ming	-2214
dero	-2215
edro	-2216
ghts	-2217
haps	-2218
lack	-2219
ored	-2220
pick	-2221
very	-2222
▁...	-2223
▁Bas	-2224
▁Era	-2225
▁Msp	-2226
▁Pue	-2227
▁Yet	-2228
▁clo	-2229
▁her	-2230
▁imp	-2231
▁may	-2232
▁pay	-2233
Effie	-2234
Looks	-2235
actus	-2236
barca	-2237
bsint	-2238
ikuni	-2239
rated	-2240
tacos	-2241
udoku	-2242
▁Aria	-2243
▁Bird	-2244
▁Buca	-2245
▁Gate	-2246
▁Ipoh	-2247
▁Mall	-2248
▁REst	-2249
▁cond	-2250
▁fond	-2251
▁home	-2252
▁hook	-2253
▁list	-2254
▁pull	-2255
▁stay	-2256
▁vari	-2257
▁went	-2258
Hanami	-2259
Korean	-2260
Miliki	-2261
lights	-2262
native	-2263
please	-2264
▁Amber	-2265
▁Angus	-2266
▁Chuck	-2267
▁Dyafa	-2268
▁Kyoto	-2269
▁Mount	-2270
▁Osaka	-2271
▁Pearl	-2272
▁Pedro	-2273
▁Phone	-2274
▁Thank	-2275
▁Umami	-2276
▁bored	-2277
▁query	-2278
▁salad	-2279
▁sells	-2280
▁suits	-2281
astries	-2282
bsinthe	-2283
ilities	-2284
▁Bascom	-2285
▁Cactus	-2286
▁Middle	-2287
▁Pueblo	-2288
▁abouts	-2289
▁brunch	-2290
▁closer	-2291
▁sucked	-2292
▁things	-2293
Parisian	-2294
mountain	-2295
▁Academy	-2296
▁African	-2297
▁Belotti	-2298
▁Embarca	-2299
▁Lobster	-2300
▁Merlion	-2301
▁Perhaps	-2302
▁Reserve	-2303
▁Russian	-2304
▁changed	-2305
▁conduct	-2306
▁impress	-2307
▁usually	-2308
▁variety	-2309
ternative	-2310
▁Anything	-2311
▁Butterfly	-2312
▁Someplace	-2313
▁mentioned	-2314
▁perfectly	-2315
▁REstaurant	-2316
▁Embarcadero	-2317
▁specializes	-2318
▁possibilities	-2319
Af	-2320
Ar	-2321
im	-2322
ug	-2323
wh	-2324
▁?	-2325
Aux	-2326
Cha	-2327
Cuc	-2328
Did	-2329
ane	-2330
asu	-2331
ene	-2332
ick	-2333
inn	-2334
lem	-2335
lus	-2336
ota	-2337
▁gu	-2338
Arth	-2339
Baan	-2340
Cook	-2341
Fine	-2342
Help	-2343
Lake	-2344
cond	-2345
ific	-2346
migo	-2347
owry	-2348
rito	-2349
when	-2350
▁Bur	-2351
▁Eug	-2352
▁Its	-2353
▁Mac	-2354
▁Pre	-2355
▁Soo	-2356
▁bar	-2357
▁him	-2358
▁int	-2359
▁too	-2360
Addis	-2361
Aniki	-2362
Chaat	-2363
Okawa	-2364
Shree	-2365
Texas	-2366
asual	-2367
ature	-2368
esota	-2369
found	-2370
▁Cast	-2371
▁Chop	-2372
▁Clem	-2373
▁Isla	-2374
▁Lane	-2375
▁Minn	-2376
▁Plus	-2377
▁Spec	-2378
▁conf	-2379
▁long	-2380
▁mimi	-2381
▁pick	-2382
Arthur	-2383
Cucina	-2384
Making	-2385
Monday	-2386
Pampas	-2387
▁Amigo	-2388
▁Black	-2389
▁Celia	-2390
▁Mowry	-2391
▁Poang	-2392
▁Tokyo	-2393
▁along	-2394
▁being	-2395
▁bunch	-2396
▁story	-2397
Hukilau	-2398
Marhaba	-2399
ferably	-2400
▁Eugene	-2401
▁Hikuni	-2402
▁Howard	-2403
▁Irving	-2404
▁Judoku	-2405
▁Korean	-2406
▁casual	-2407
▁eleven	-2408
▁friday	-2409
▁matter	-2410
▁second	-2411
▁server	-2412
▁though	-2413
Bennigan	-2414
Estampas	-2415
Filipino	-2416
Oriental	-2417
Szcheuan	-2418
ifically	-2419
tomorrow	-2420
▁Burrito	-2421
▁Clement	-2422
▁Flights	-2423
▁serving	-2424
Afternoon	-2425
Dumplings	-2426
Ethiopian	-2427
Flowering	-2428
Pakistani	-2429
▁Absinthe	-2430
▁Castello	-2431
▁Estampas	-2432
▁Furusato	-2433
▁Paradiso	-2434
▁Parisian	-2435
▁Pastries	-2436
▁offering	-2437
▁reserved	-2438
▁starving	-2439
▁thinking	-2440
Confirming	-2441
Lemongrass	-2442
▁Antonella	-2443
▁Gastrobar	-2444
▁MacArthur	-2445
▁Minnesota	-2446
▁completed	-2447
▁reserving	-2448
Singaporean	-2449
▁Preferably	-2450
▁Rocknwraps	-2451
▁Restaurants	-2452
▁Specifically	-2453
Fu	-2454
hy	-2455
oc	-2456
za	-2457
Anh	-2458
Nah	-2459
Tai	-2460
aki	-2461
cia	-2462
des	-2463
dor	-2464
ial	-2465
ite	-2466
mit	-2467
phy	-2468
ppo	-2469
rec	-2470
zil	-2471
▁We	-2472
▁gr	-2473
....	-2474
Baci	-2475
Then	-2476
aker	-2477
chez	-2478
dori	-2479
eaks	-2480
ered	-2481
gora	-2482
laza	-2483
ukiy	-2484
▁Com	-2485
▁Gau	-2486
▁Loc	-2487
▁Mur	-2488
▁Yes	-2489
▁app	-2490
▁pot	-2491
Andes	-2492
Aslam	-2493
Gumba	-2494
Might	-2495
Phone	-2496
Tabla	-2497
amily	-2498
arket	-2499
iscov	-2500
merce	-2501
shall	-2502
sides	-2503
zille	-2504
▁Live	-2505
▁Look	-2506
▁Wish	-2507
▁appo	-2508
▁most	-2509
▁note	-2510
▁when	-2511
▁youn	-2512
Lovina	-2513
Newark	-2514
Panera	-2515
abalen	-2516
ential	-2517
▁Amami	-2518
▁Angel	-2519
▁Plaza	-2520
▁Rosie	-2521
▁Sukiy	-2522
▁group	-2523
▁kinds	-2524
▁limit	-2525
▁lines	-2526
▁loose	-2527
▁still	-2528
▁venue	-2529
Alameda	-2530
Burgers	-2531
Correct	-2532
Dicicco	-2533
Seafood	-2534
alencia	-2535
intment	-2536
lobster	-2537
morning	-2538
reciate	-2539
▁Locust	-2540
▁Market	-2541
▁Murphy	-2542
▁Sunday	-2543
▁anyway	-2544
▁discov	-2545
▁family	-2546
▁placed	-2547
▁rather	-2548
▁steaks	-2549
umplings	-2550
▁Biryani	-2551
▁Bourbon	-2552
▁Parkway	-2553
▁Sanchez	-2554
▁besides	-2555
▁exactly	-2556
▁playing	-2557
fairfield	-2558
▁Commerce	-2559
▁Filipino	-2560
▁Oriental	-2561
▁Sukiyaki	-2562
▁Szcheuan	-2563
▁drinking	-2564
▁dumpling	-2565
▁Dumplings	-2566
▁Wednesday	-2567
▁fairfield	-2568
▁potential	-2569
▁situation	-2570
Fortunately	-2571
▁appreciate	-2572
▁discovered	-2573
▁limitation	-2574
▁Singaporean	-2575
▁appointment	-2576
Qu	-2577
av	-2578
Ale	-2579
Tok	-2580
Yet	-2581
els	-2582
sya	-2583
tem	-2584
xan	-2585
▁PM	-2586
Ange	-2587
Bird	-2588
Ipoh	-2589
Mate	-2590
This	-2591
Upon	-2592
Want	-2593
acks	-2594
avor	-2595
cafe	-2596
come	-2597
ener	-2598
hile	-2599
soup	-2600
sure	-2601
tter	-2602
▁ask	-2603
▁hot	-2604
▁mid	-2605
▁wel	-2606
Brixx	-2607
Crave	-2608
Kyoto	-2609
aning	-2610
erish	-2611
ially	-2612
quiry	-2613
tempt	-2614
there	-2615
▁Next	-2616
Alexan	-2617
Eleven	-2618
ackson	-2619
eneral	-2620
erence	-2621
▁Agora	-2622
▁Baker	-2623
▁Daiki	-2624
▁Odori	-2625
▁Osake	-2626
▁Sorry	-2627
▁Tokai	-2628
▁begin	-2629
▁favor	-2630
▁issue	-2631
▁local	-2632
▁quali	-2633
▁stars	-2634
▁while	-2635
Quarter	-2636
Spanish	-2637
▁Angelo	-2638
▁Number	-2639
▁better	-2640
▁hotels	-2641
▁indian	-2642
▁rating	-2643
McDonald	-2644
Thursday	-2645
▁Bazille	-2646
▁Burgers	-2647
▁Cabalen	-2648
▁Central	-2649
▁Confirm	-2650
▁Correct	-2651
▁However	-2652
▁Jackson	-2653
▁attempt	-2654
▁cherish	-2655
▁general	-2656
▁inquiry	-2657
▁lobster	-2658
▁locally	-2659
▁meaning	-2660
▁prefect	-2661
▁regards	-2662
▁results	-2663
▁welcome	-2664
Alexander	-2665
▁favorite	-2666
Aappakadai	-2667
▁qualities	-2668
▁regarding	-2669
▁specially	-2670
▁conference	-2671
▁alternative	-2672
Mediterranean	-2673
▁particularly	-2674
Aw	-2675
ss	-2676
Put	-2677
Soo	-2678
Why	-2679
cen	-2680
cri	-2681
dic	-2682
yon	-2683
Awes	-2684
Chop	-2685
Isla	-2686
Tell	-2687
arge	-2688
deal	-2689
gest	-2690
ions	-2691
irst	-2692
mimi	-2693
osta	-2694
ream	-2695
sess	-2696
some	-2697
ways	-2698
▁con	-2699
▁des	-2700
▁nor	-2701
▁thr	-2702
▁win	-2703
Angel	-2704
Grand	-2705
Rosie	-2706
Tokyo	-2707
cense	-2708
ontra	-2709
sorry	-2710
sushi	-2711
which	-2712
▁Asya	-2713
▁Crow	-2714
▁Dash	-2715
▁East	-2716
▁Rasa	-2717
▁Sure	-2718
▁Yeah	-2719
▁arri	-2720
▁care	-2721
▁rese	-2722
▁soup	-2723
Anyone	-2724
dicate	-2725
▁Costa	-2726
▁dream	-2727
▁every	-2728
▁first	-2729
▁guess	-2730
▁ideal	-2731
▁march	-2732
▁names	-2733
▁thats	-2734
Academy	-2735
Awesome	-2736
Biryani	-2737
Bourbon	-2738
venient	-2739
▁Canyon	-2740
▁Contra	-2741
▁always	-2742
▁charge	-2743
▁descri	-2744
▁monday	-2745
▁nature	-2746
▁served	-2747
▁winner	-2748
gestions	-2749
uccessfu	-2750
▁however	-2751
▁license	-2752
▁neither	-2753
▁possess	-2754
▁process	-2755
▁through	-2756
▁wanting	-2757
Antonella	-2758
something	-2759
▁arriving	-2760
▁dreaming	-2761
▁indicate	-2762
Rocknwraps	-2763
▁requested	-2764
▁resturant	-2765
▁convenient	-2766
▁everything	-2767
▁resevation	-2768
▁restraunts	-2769
▁description	-2770
▁sugggestions	-2771
▁Mediterranean	-2772
▁Unfortunately	-2773
OK	-2774
cce	-2775
oep	-2776
oom	-2777
ove	-2778
rav	-2779
ues	-2780
inue	-2781
pted	-2782
self	-2783
▁due	-2784
▁ext	-2785
▁fix	-2786
▁ret	-2787
Today	-2788
agant	-2789
march	-2790
oeple	-2791
▁Ness	-2792
▁acce	-2793
▁five	-2794
▁ones	-2795
▁room	-2796
▁self	-2797
▁show	-2798
▁wank	-2799
Change	-2800
Twelve	-2801
▁Could	-2802
▁above	-2803
▁incon	-2804
Morning	-2805
▁either	-2806
▁extrav	-2807
▁issues	-2808
▁myself	-2809
▁poeple	-2810
venience	-2811
▁anymore	-2812
▁success	-2813
▁accepted	-2814
▁continue	-2815
▁returant	-2816
▁Contrasto	-2817
▁excellent	-2818
▁preferable	-2819
▁extravagant	-2820
▁inconvenience	-2821
gr	-2822
Its	-2823
Pro	-2824
aph	-2825
ele	-2826
ica	-2827
men	-2828
▁OK	-2829
▁Oh	-2830
▁So	-2831
▁Un	-2832
▁ba	-2833
▁fu	-2834
▁os	-2835
Done	-2836
Live	-2837
Prob	-2838
Well	-2839
ablo	-2840
adre	-2841
atio	-2842
hats	-2843
lear	-2844
ourt	-2845
rove	-2846
▁Bei	-2847
▁Hot	-2848
▁Oak	-2849
▁Put	-2850
▁Set	-2851
Congr	-2852
Place	-2853
South	-2854
elegr	-2855
seven	-2856
thats	-2857
▁Amer	-2858
▁Blue	-2859
▁Book	-2860
▁Half	-2861
▁clar	-2862
change	-2863
oremen	-2864
▁Court	-2865
▁Grove	-2866
▁Pablo	-2867
▁Padre	-2868
▁Patio	-2869
▁Union	-2870
▁clear	-2871
▁fully	-2872
▁plans	-2873
▁prime	-2874
Apologi	-2875
▁Aperto	-2876
▁Telegr	-2877
▁Twelve	-2878
▁arrive	-2879
▁tables	-2880
▁wanted	-2881
Congrats	-2882
Probably	-2883
risibisi	-2884
▁America	-2885
▁Juanita	-2886
▁Morning	-2887
▁Western	-2888
▁changes	-2889
▁clarify	-2890
▁placing	-2891
Apologies	-2892
▁Moderate	-2893
▁aforemen	-2894
▁risibisi	-2895
▁Telegraph	-2896
▁aforementioned	-2897
On	-2898
Wa	-2899
ef	-2900
vi	-2901
Ear	-2902
Yep	-2903
arn	-2904
err	-2905
led	-2906
opy	-2907
ors	-2908
ous	-2909
▁Aq	-2910
▁My	-2911
▁fe	-2912
.?<|	-2913
Wait	-2914
adly	-2915
erid	-2916
ests	-2917
ided	-2918
ming	-2919
ttle	-2920
ucky	-2921
will	-2922
your	-2923
▁Did	-2924
▁Jef	-2925
▁Row	-2926
▁err	-2927
▁fai	-2928
▁red	-2929
▁uns	-2930
Early	-2931
Greek	-2932
Never	-2933
erned	-2934
vious	-2935
▁Hopy	-2936
▁Kent	-2937
▁Sant	-2938
▁Ston	-2939
▁conc	-2940
▁darn	-2941
▁dont	-2942
▁meke	-2943
▁seat	-2944
Sunday	-2945
eridge	-2946
ferson	-2947
▁Chess	-2948
▁Sadly	-2949
▁quest	-2950
▁seven	-2951
Booking	-2952
Certain	-2953
Instead	-2954
booking	-2955
redwood	-2956
▁Change	-2957
▁Ramona	-2958
▁Sounds	-2959
▁chance	-2960
▁enough	-2961
▁errors	-2962
▁failed	-2963
▁guests	-2964
▁little	-2965
▁timing	-2966
▁Hopyard	-2967
▁Santana	-2968
▁feature	-2969
▁friends	-2970
▁redwood	-2971
Certainly	-2972
uccessful	-2973
▁Kentucky	-2974
▁previous	-2975
▁provided	-2976
▁question	-2977
▁Jefferson	-2978
▁Successfu	-2979
▁concerned	-2980
ternatively	-2981
▁Stoneridge	-2982
▁Successfully	-2983
▁confirmation	-2984
▁unsuccessful	-2985
▁Alternatively	-2986
De	-2987
See	-2988
Thi	-2989
ary	-2990
eam	-2991
Cafe	-2992
Good	-2993
Next	-2994
have	-2995
omie	-2996
tory	-2997
▁.<|	-2998
▁But	-2999
▁Low	-3000
▁una	-3001
▁vic	-3002
▁way	-3003
Thier	-3004
ceful	-3005
tting	-3006
▁luck	-3007
▁over	-3008
▁soon	-3009
▁team	-3010
▁yeah	-3011
thanks	-3012
▁Price	-3013
▁homie	-3014
▁isper	-3015
▁pleas	-3016
▁toast	-3017
Nothing	-3018
cessary	-3019
chinese	-3020
▁having	-3021
anything	-3022
▁greatly	-3023
▁helpful	-3024
▁setting	-3025
▁victory	-3026
▁worries	-3027
▁included	-3028
▁pleasant	-3029
▁pleasure	-3030
▁succeful	-3031
▁confusion	-3032
▁isperfect	-3033
▁necessary	-3034
▁additional	-3035
▁unavailable	-3036
Be	-3037
El	-3038
Gr	-3039
di	-3040
ig	-3041
Ala	-3042
Dai	-3043
Gau	-3044
Mer	-3045
Won	-3046
Wow	-3047
lad	-3048
tur	-3049
Aria	-3050
Asya	-3051
Buca	-3052
Chef	-3053
Hana	-3054
Hope	-3055
alog	-3056
turn	-3057
▁Day	-3058
▁big	-3059
Agora	-3060
Amami	-3061
Baker	-3062
Black	-3063
Chuck	-3064
Daiki	-3065
Dyafa	-3066
Grate	-3067
Odori	-3068
Tokai	-3069
thank	-3070
▁This	-3071
▁glad	-3072
Angelo	-3073
Hikuni	-3074
Judoku	-3075
Wonder	-3076
dialog	-3077
indian	-3078
▁quite	-3079
▁waste	-3080
Bazille	-3081
Belotti	-3082
Cabalen	-3083
Flights	-3084
Merlion	-3085
Absinthe	-3086
Grateful	-3087
Pastries	-3088
▁helping	-3089
▁nothing	-3090
Butterfly	-3091
Wonderful	-3092
▁fantastic	-3093
"<	-3094
,"	-3095
.<	-3096
>"	-3097
><	-3098
?<	-3099
AF	-3100
AM	-3101
Aa	-3102
Ab	-3103
Ac	-3104
Ad	-3105
Ag	-3106
Ai	-3107
Am	-3108
Ap	-3109
As	-3110
Au	-3111
Av	-3112
Bi	-3113
Bl	-3114
Bo	-3115
Br	-3116
Bu	-3117
CE	-3118
Ca	-3119
Ce	-3120
Ci	-3121
Cl	-3122
Co	-3123
Cr	-3124
Cu	-3125
DB	-3126
Da	-3127
Di	-3128
Dr	-3129
Du	-3130
Dy	-3131
EC	-3132
EG	-3133
EN	-3134
EQ	-3135
Ea	-3136
Ef	-3137
Em	-3138
Er	-3139
Es	-3140
Et	-3141
Eu	-3142
Ev	-3143
FA	-3144
FE	-3145
FI	-3146
Fa	-3147
Fe	-3148
Fi	-3149
Fl	-3150
Fo	-3151
Fr	-3152
GA	-3153
Ga	-3154
Gi	-3155
Gu	-3156
HA	-3157
Ha	-3158
Ho	-3159
Hu	-3160
IF	-3161
IL	-3162
IN	-3163
IR	-3164
Im	-3165
Ip	-3166
Ir	-3167
Iz	-3168
Ja	-3169
Je	-3170
Jo	-3171
Ju	-3172
Ka	-3173
Ki	-3174
Ko	-3175
Ky	-3176
LE	-3177
Le	-3178
Li	-3179
Lo	-3180
Ma	-3181
Me	-3182
Mo	-3183
Ms	-3184
Mu	-3185
NK	-3186
Na	-3187
Ne	-3188
Nu	-3189
OF	-3190
ON	-3191
OO	-3192
OR	-3193
OT	-3194
Oa	-3195
Od	-3196
Ol	-3197
Or	-3198
Os	-3199
Ke	-3200
LT	-3201
PM	-3202
Pa	-3203
Pe	-3204
Ph	-3205
Pi	-3206
Pl	-3207
Po	-3208
Pr	-3209
Pu	-3210
QU	-3211
Ra	-3212
Ri	-3213
Ru	-3214
SE	-3215
SS	-3216
ST	-3217
Sa	-3218
Sh	-3219
Si	-3220
Sp	-3221
Sq	-3222
Su	-3223
Sz	-3224
TE	-3225
Ta	-3226
Te	-3227
Ti	-3228
Tu	-3229
Tw	-3230
UC	-3231
UE	-3232
UN	-3233
UR	-3234
Um	-3235
Up	-3236
Wi	-3237
Wo	-3238
Wu	-3239
YE	-3240
YO	-3241
Ye	-3242
Yo	-3243
Yu	-3244
^~	-3245
aa	-3246
ae	-3247
az	-3248
bi	-3249
bo	-3250
br	-3251
bu	-3252
cA	-3253
cD	-3254
cc	-3255
cd	-3256
ci	-3257
cr	-3258
cu	-3259
dR	-3260
db	-3261
dc	-3262
dg	-3263
dh	-3264
dl	-3265
dn	-3266
do	-3267
dr	-3268
ds	-3269
dt	-3270
du	-3271
dw	-3272
dy	-3273
eR	-3274
eb	-3275
ee	-3276
eg	-3277
eo	-3278
eq	-3279
eu	-3280
ev	-3281
ey	-3282
ez	-3283
fa	-3284
ff	-3285
fi	-3286
fl	-3287
fo	-3288
ft	-3289
fy	-3290
gd	-3291
gl	-3292
gs	-3293
gu	-3294
ha	-3295
hn	-3296
hr	-3297
ht	-3298
hu	-3299
ib	-3300
ip	-3301
iq	-3302
iv	-3303
iw	-3304
iy	-3305
ka	-3306
kf	-3307
kh	-3308
kn	-3309
ko	-3310
ku	-3311
kw	-3312
ky	-3313
lb	-3314
lc	-3315
lm	-3316
ln	-3317
lr	-3318
ls	-3319
lu	-3320
lv	-3321
lw	-3322
ma	-3323
mb	-3324
mo	-3325
ms	-3326
mu	-3327
my	-3328
na	-3329
nb	-3330
nc	-3331
nf	-3332
ng	-3333
nh	-3334
nk	-3335
nl	-3336
nm	-3337
nn	-3338
nq	-3339
nr	-3340
ns	-3341
nu	-3342
nv	-3343
oa	-3344
od	-3345
oe	-3346
of	-3347
og	-3348
oh	-3349
ol	-3350
pa	-3351
pb	-3352
pd	-3353
pf	-3354
ph	-3355
pi	-3356
pl	-3357
pm	-3358
pr	-3359
ps	-3360
pu	-3361
py	-3362
rb	-3363
rc	-3364
rf	-3365
rg	-3366
rh	-3367
rk	-3368
rl	-3369
rm	-3370
rn	-3371
rp	-3372
rr	-3373
rs	-3374
rt	-3375
ru	-3376
rv	-3377
rw	-3378
sa	-3379
sb	-3380
sc	-3381
sd	-3382
sf	-3383
sh	-3384
sk	-3385
sn	-3386
su	-3387
tc	-3388
tl	-3389
tm	-3390
ts	-3391
tu	-3392
tw	-3393
ty	-3394
ua	-3395
ui	-3396
uk	-3397
ul	-3398
uo	-3399
vo	-3400
wa	-3401
wi	-3402
wo	-3403
wr	-3404
xa	-3405
xc	-3406
xi	-3407
xp	-3408
xt	-3409
ya	-3410
yb	-3411
ye	-3412
yi	-3413
yl	-3414
ym	-3415
yp	-3416
ys	-3417
yt	-3418
yv	-3419
yw	-3420
zc	-3421
zo	-3422
zz	-3423
~<	-3424
▁U	-3425
▁q	-3426
"<|	-3427
><|	-3428
Act	-3429
Asl	-3430
Asy	-3431
Aut	-3432
Ban	-3433
Baz	-3434
Ben	-3435
Ber	-3436
Bre	-3437
But	-3438
Car	-3439
Cen	-3440
Cer	-3441
Chu	-3442
Con	-3443
Das	-3444
Day	-3445
Din	-3446
Don	-3447
Ele	-3448
Est	-3449
Fan	-3450
Fin	-3451
Fon	-3452
Foo	-3453
Fre	-3454
Fur	-3455
GAT	-3456
GOO	-3457
Gat	-3458
Gin	-3459
Goo	-3460
Hac	-3461
Har	-3462
Her	-3463
Hon	-3464
Hun	-3465
Ind	-3466
Isl	-3467
Jap	-3468
Kab	-3469
Ken	-3470
Lan	-3471
Lat	-3472
Lem	-3473
Loo	-3474
Low	-3475
Mar	-3476
Mat	-3477
Mau	-3478
Min	-3479
Mon	-3480
Mou	-3481
NFI	-3482
Nar	-3483
Nex	-3484
Nor	-3485
Ori	-3486
Pak	-3487
Pal	-3488
Pan	-3489
Pat	-3490
Ran	-3491
Sic	-3492
Sin	-3493
Tor	-3494
UES	-3495
Wan	-3496
Wed	-3497
Win	-3498
aan	-3499
Ali	-3500
Bou	-3501
Coo	-3502
Cou	-3503
Cre	-3504
Fis	-3505
Fli	-3506
Fou	-3507
Gre	-3508
Hou	-3509
Lou	-3510
Oli	-3511
Pam	-3512
Pre	-3513
Ris	-3514
Wal	-3515
Wou	-3516
aat	-3517
acA	-3518
ace	-3519
aco	-3520
ait	-3521
ale	-3522
anc	-3523
ano	-3524
anq	-3525
ans	-3526
apo	-3527
arc	-3528
asi	-3529
aso	-3530
atc	-3531
ath	-3532
atl	-3533
att	-3534
atu	-3535
aud	-3536
aun	-3537
bal	-3538
ban	-3539
bel	-3540
beq	-3541
bes	-3542
bet	-3543
ble	-3544
boo	-3545
bor	-3546
bou	-3547
bre	-3548
bst	-3549
bus	-3550
but	-3551
cal	-3552
can	-3553
cat	-3554
cel	-3555
cer	-3556
cey	-3557
chi	-3558
cif	-3559
cin	-3560
cis	-3561
cit	-3562
coh	-3563
cou	-3564
cov	-3565
cur	-3566
dab	-3567
dat	-3568
dbe	-3569
dem	-3570
den	-3571
det	-3572
din	-3573
dis	-3574
don	-3575
dre	-3576
eal	-3577
eat	-3578
ece	-3579
ede	-3580
edr	-3581
een	-3582
ein	-3583
eit	-3584
eld	-3585
enc	-3586
eni	-3587
enn	-3588
eno	-3589
ens	-3590
enu	-3591
erc	-3592
erf	-3593
erh	-3594
eri	-3595
erk	-3596
erl	-3597
erm	-3598
ero	-3599
Bac	-3600
Cac	-3601
Cor	-3602
Gar	-3603
Jac	-3604
Lob	-3605
Mac	-3606
Mor	-3607
Nop	-3608
Sea	-3609
Sor	-3610
URE	-3611
Wis	-3612
ack	-3613
arg	-3614
ase	-3615
bis	-3616
cep	-3617
cor	-3618
ers	-3619
eru	-3620
erv	-3621
erw	-3622
esd	-3623
esn	-3624
eta	-3625
eth	-3626
exp	-3627
fan	-3628
fic	-3629
fin	-3630
fis	-3631
fon	-3632
fou	-3633
fre	-3634
gar	-3635
gel	-3636
gen	-3637
gin	-3638
gio	-3639
gor	-3640
gre	-3641
hab	-3642
hal	-3643
han	-3644
hen	-3645
hin	-3646
his	-3647
hit	-3648
hon	-3649
hoo	-3650
hou	-3651
hre	-3652
hun	-3653
iat	-3654
icc	-3655
icy	-3656
ien	-3657
ier	-3658
ies	-3659
iet	-3660
iko	-3661
ile	-3662
inb	-3663
inc	-3664
inf	-3665
ini	-3666
inl	-3667
inm	-3668
inq	-3669
inr	-3670
inu	-3671
iou	-3672
irf	-3673
isc	-3674
ise	-3675
iso	-3676
isp	-3677
iss	-3678
kai	-3679
kay	-3680
ker	-3681
kin	-3682
lan	-3683
lat	-3684
len	-3685
lex	-3686
lia	-3687
lif	-3688
lig	-3689
lik	-3690
lim	-3691
lin	-3692
lip	-3693
liq	-3694
lit	-3695
liv	-3696
lle	-3697
lli	-3698
lob	-3699
Ame	-3700
Apo	-3701
Cit	-3702
Kit	-3703
Mex	-3704
NFO	-3705
Oak	-3706
Ple	-3707
ars	-3708
arv	-3709
bit	-3710
ced	-3711
cef	-3712
cle	-3713
coo	-3714
dar	-3715
dit	-3716
dle	-3717
ear	-3718
emp	-3719
har	-3720
itc	-3721
its	-3722
ket	-3723
lco	-3724
leg	-3725
log	-3726
lon	-3727
loo	-3728
lpf	-3729
lri	-3730
lve	-3731
mam	-3732
man	-3733
mar	-3734
mat	-3735
mea	-3736
mee	-3737
mek	-3738
mep	-3739
mes	-3740
met	-3741
mew	-3742
mic	-3743
min	-3744
mon	-3745
mou	-3746
mus	-3747
nan	-3748
nch	-3749
nds	-3750
ndy	-3751
nge	-3752
nik	-3753
nin	-3754
nor	-3755
nst	-3756
nut	-3757
oad	-3758
oan	-3759
oce	-3760
och	-3761
ock	-3762
oin	-3763
oky	-3764
olf	-3765
oli	-3766
olo	-3767
oni	-3768
onl	-3769
ono	-3770
ons	-3771
onv	-3772
oon	-3773
opi	-3774
org	-3775
ori	-3776
ork	-3777
orm	-3778
orn	-3779
orr	-3780
oth	-3781
oug	-3782
oul	-3783
pak	-3784
par	-3785
pas	-3786
pbe	-3787
pin	-3788
pit	-3789
ple	-3790
ply	-3791
pre	-3792
qua	-3793
rap	-3794
rbe	-3795
ref	-3796
reg	-3797
req	-3798
ret	-3799
Ari	-3800
Boo	-3801
Noo	-3802
Pet	-3803
Set	-3804
Tex	-3805
cke	-3806
exa	-3807
exi	-3808
foo	-3809
goo	-3810
het	-3811
lay	-3812
llb	-3813
mie	-3814
moo	-3815
nex	-3816
owe	-3817
rev	-3818
ric	-3819
rin	-3820
rip	-3821
ris	-3822
rme	-3823
roo	-3824
ror	-3825
rou	-3826
rov	-3827
rre	-3828
rri	-3829
rse	-3830
rst	-3831
sal	-3832
san	-3833
sar	-3834
sat	-3835
sea	-3836
sec	-3837
see	-3838
sel	-3839
ses	-3840
set	-3841
sev	-3842
sid	-3843
sin	-3844
sit	-3845
siz	-3846
sor	-3847
sou	-3848
sse	-3849
sta	-3850
ste	-3851
sti	-3852
stl	-3853
sto	-3854
str	-3855
sts	-3856
stu	-3857
sty	-3858
tac	-3859
tal	-3860
tan	-3861
tat	-3862
ted	-3863
ten	-3864
tex	-3865
tin	-3866
tle	-3867
tom	-3868
ton	-3869
tre	-3870
tsi	-3871
ual	-3872
uar	-3873
uat	-3874
ueb	-3875
uer	-3876
uet	-3877
uit	-3878
ule	-3879
uns	-3880
uor	-3881
urn	-3882
urp	-3883
use	-3884
vag	-3885
van	-3886
var	-3887
vat	-3888
ved	-3889
vel	-3890
ves	-3891
vic	-3892
vid	-3893
vie	-3894
vin	-3895
vis	-3896
vor	-3897
wan	-3898
war	-3899
Bel	-3900
Dic	-3901
Eth	-3902
Fic	-3903
ORE	-3904
ald	-3905
ges	-3906
hic	-3907
ici	-3908
ict	-3909
ldn	-3910
old	-3911
rth	-3912
sic	-3913
thi	-3914
thu	-3915
tic	-3916
wat	-3917
wen	-3918
wer	-3919
win	-3920
wis	-3921
won	-3922
woo	-3923
wor	-3924
wou	-3925
xac	-3926
xce	-3927
yaf	-3928
yak	-3929
yan	-3930
yar	-3931
ybe	-3932
yin	-3933
yot	-3934
you	-3935
ype	-3936
yse	-3937
yst	-3938
yth	-3939
zer	-3940
zes	-3941
zin	-3942
zor	-3943
▁Ab	-3944
▁Ad	-3945
▁Ag	-3946
▁Ai	-3947
▁Am	-3948
▁Bl	-3949
▁Cl	-3950
▁Cr	-3951
▁Ha	-3952
▁Hi	-3953
▁Im	-3954
▁Ip	-3955
▁Iz	-3956
▁Ja	-3957
▁Jo	-3958
▁Ko	-3959
▁Lo	-3960
▁Ma	-3961
▁Me	-3962
▁Ms	-3963
▁Mu	-3964
▁Ph	-3965
▁Ra	-3966
▁Se	-3967
▁Sh	-3968
▁Sp	-3969
▁Sq	-3970
▁Su	-3971
▁Sz	-3972
▁Tr	-3973
▁Tu	-3974
▁Wa	-3975
▁Wo	-3976
▁ac	-3977
▁ad	-3978
▁ag	-3979
▁ap	-3980
▁av	-3981
▁ca	-3982
▁co	-3983
▁cr	-3984
▁cu	-3985
▁de	-3986
▁di	-3987
▁du	-3988
▁ec	-3989
▁el	-3990
▁er	-3991
▁et	-3992
▁ev	-3993
▁fa	-3994
▁fi	-3995
▁fo	-3996
▁fr	-3997
▁hi	-3998
▁ho	-3999
Cal	-4000
Hal	-4001
ONF	-4002
Sho	-4003
Tha	-4004
Thu	-4005
ada	-4006
alc	-4007
alu	-4008
ays	-4009
cch	-4010
cky	-4011
ctu	-4012
fus	-4013
ged	-4014
hol	-4015
ote	-4016
sco	-4017
▁As	-4018
▁Av	-4019
▁Ca	-4020
▁Ce	-4021
▁Cu	-4022
▁Du	-4023
▁Gi	-4024
▁Mo	-4025
▁gl	-4026
▁he	-4027
▁hu	-4028
▁id	-4029
▁le	-4030
▁lu	-4031
▁ma	-4032
▁mi	-4033
▁mo	-4034
▁mu	-4035
▁na	-4036
▁ni	-4037
▁nu	-4038
▁op	-4039
▁ou	-4040
▁ov	-4041
▁pa	-4042
▁ph	-4043
▁pi	-4044
▁po	-4045
▁pu	-4046
▁sa	-4047
▁sc	-4048
▁sh	-4049
▁si	-4050
▁sp	-4051
▁ta	-4052
▁te	-4053
▁tr	-4054
▁tu	-4055
▁wa	-4056
▁wi	-4057
▁ye	-4058
Alam	-4059
Amer	-4060
Anik	-4061
Bamb	-4062
Biry	-4063
Bist	-4064
CCES	-4065
Cali	-4066
Cast	-4067
Celi	-4068
Cent	-4069
City	-4070
Conf	-4071
Cont	-4072
Dona	-4073
East	-4074
Ever	-4075
Fant	-4076
Fili	-4077
Font	-4078
Fost	-4079
Fran	-4080
Fres	-4081
GATE	-4082
Gast	-4083
Gate	-4084
Gran	-4085
Gree	-4086
Hell	-4087
Hill	-4088
Huki	-4089
Inst	-4090
Izak	-4091
Kent	-4092
Kore	-4093
Mili	-4094
Mill	-4095
Milp	-4096
Mint	-4097
Nood	-4098
Odor	-4099
Asi	-4100
Bir	-4101
Bur	-4102
Rus	-4103
Sus	-4104
adh	-4105
ded	-4106
eir	-4107
esc	-4108
fir	-4109
igh	-4110
irl	-4111
irm	-4112
llm	-4113
llo	-4114
lud	-4115
nde	-4116
ndi	-4117
osi	-4118
riv	-4119
rus	-4120
ssi	-4121
sue	-4122
sus	-4123
tus	-4124
uir	-4125
ush	-4126
usu	-4127
zch	-4128
▁Aa	-4129
▁Ac	-4130
▁Af	-4131
▁Ap	-4132
▁Ar	-4133
▁Au	-4134
▁Ef	-4135
▁Fa	-4136
▁Fe	-4137
▁Fi	-4138
▁Fl	-4139
▁Fo	-4140
▁Fr	-4141
▁Fu	-4142
▁Pa	-4143
▁Pi	-4144
▁Pl	-4145
▁Pr	-4146
▁Pu	-4147
▁gi	-4148
Aapp	-4149
Alex	-4150
Frem	-4151
Okaw	-4152
Past	-4153
Plea	-4154
REst	-4155
Real	-4156
Rest	-4157
Risi	-4158
Sant	-4159
Seaf	-4160
Shat	-4161
Sing	-4162
Spic	-4163
THAN	-4164
TIFY	-4165
Than	-4166
Time	-4167
UEST	-4168
West	-4169
Wine	-4170
aced	-4171
acin	-4172
aile	-4173
aint	-4174
akad	-4175
alay	-4176
alco	-4177
alse	-4178
alum	-4179
anam	-4180
anch	-4181
ands	-4182
aner	-4183
anin	-4184
anis	-4185
anit	-4186
ante	-4187
aper	-4188
arad	-4189
arbe	-4190
aris	-4191
asco	-4192
asti	-4193
astr	-4194
atch	-4195
atef	-4196
atel	-4197
ayan	-4198
aysi	-4199
Cab	-4200
Cot	-4201
Cra	-4202
Las	-4203
Med	-4204
Nes	-4205
Tab	-4206
UNT	-4207
abl	-4208
abo	-4209
asa	-4210
bab	-4211
dge	-4212
eds	-4213
edw	-4214
eed	-4215
eso	-4216
hes	-4217
ize	-4218
lab	-4219
lot	-4220
nab	-4221
ned	-4222
nes	-4223
nta	-4224
nyv	-4225
oes	-4226
ott	-4227
ram	-4228
ras	-4229
urg	-4230
wes	-4231
▁Be	-4232
▁Bi	-4233
▁Bo	-4234
▁Bu	-4235
Dump	-4236
FIRM	-4237
INFO	-4238
Marh	-4239
Taiw	-4240
abal	-4241
aces	-4242
alab	-4243
amed	-4244
ames	-4245
anas	-4246
aver	-4247
band	-4248
been	-4249
bein	-4250
beli	-4251
bequ	-4252
besi	-4253
best	-4254
bili	-4255
blin	-4256
book	-4257
cate	-4258
cefu	-4259
chan	-4260
ched	-4261
ches	-4262
chit	-4263
cing	-4264
cknw	-4265
coun	-4266
cuis	-4267
derf	-4268
dget	-4269
dine	-4270
ding	-4271
dres	-4272
eakh	-4273
east	-4274
ecch	-4275
eded	-4276
emen	-4277
emon	-4278
ench	-4279
endc	-4280
endd	-4281
endl	-4282
endr	-4283
ends	-4284
endt	-4285
endu	-4286
enin	-4287
enou	-4288
ense	-4289
ensi	-4290
enta	-4291
enti	-4292
entr	-4293
entu	-4294
erab	-4295
eral	-4296
eran	-4297
erat	-4298
erce	-4299
Add	-4300
Bak	-4301
CES	-4302
Cho	-4303
Dog	-4304
Dum	-4305
FFE	-4306
Gum	-4307
Hop	-4308
Ita	-4309
Mak	-4310
NTE	-4311
Num	-4312
Row	-4313
add	-4314
akh	-4315
aks	-4316
ckn	-4317
eop	-4318
idd	-4319
iqu	-4320
num	-4321
owr	-4322
rop	-4323
sak	-4324
umb	-4325
▁bi	-4326
▁bo	-4327
▁br	-4328
▁bu	-4329
Flow	-4330
Juan	-4331
Mart	-4332
Sich	-4333
akay	-4334
elen	-4335
eren	-4336
erfe	-4337
eric	-4338
erin	-4339
eris	-4340
erme	-4341
erre	-4342
erta	-4343
erto	-4344
eser	-4345
esot	-4346
esta	-4347
este	-4348
esti	-4349
estr	-4350
estu	-4351
etin	-4352
even	-4353
exac	-4354
exce	-4355
exic	-4356
extr	-4357
fast	-4358
fers	-4359
ffer	-4360
food	-4361
ford	-4362
forn	-4363
fran	-4364
fter	-4365
gant	-4366
gelo	-4367
gett	-4368
good	-4369
gory	-4370
grap	-4371
hine	-4372
hing	-4373
holi	-4374
iake	-4375
iali	-4376
icat	-4377
iced	-4378
ices	-4379
icey	-4380
ichu	-4381
icic	-4382
iday	-4383
iend	-4384
ient	-4385
ilit	-4386
illa	-4387
illb	-4388
ille	-4389
illm	-4390
inbe	-4391
indi	-4392
inds	-4393
inex	-4394
inga	-4395
ings	-4396
inin	-4397
inst	-4398
inth	-4399
Alb	-4400
Bam	-4401
Cam	-4402
DBY	-4403
Jud	-4404
Ram	-4405
Sun	-4406
ctl	-4407
dly	-4408
ect	-4409
ily	-4410
kun	-4411
lam	-4412
lta	-4413
mim	-4414
run	-4415
tly	-4416
una	-4417
unf	-4418
unn	-4419
▁He	-4420
▁Hu	-4421
▁Ri	-4422
▁kn	-4423
FFER	-4424
acAr	-4425
ader	-4426
amin	-4427
amon	-4428
arly	-4429
ctly	-4430
exam	-4431
inly	-4432
intm	-4433
iona	-4434
ione	-4435
irme	-4436
isin	-4437
itab	-4438
itat	-4439
itch	-4440
iter	-4441
itin	-4442
itre	-4443
kele	-4444
kind	-4445
king	-4446
lame	-4447
land	-4448
lent	-4449
ligh	-4450
like	-4451
line	-4452
list	-4453
llie	-4454
llow	-4455
lock	-4456
lose	-4457
lpit	-4458
lter	-4459
mbar	-4460
meal	-4461
mean	-4462
medi	-4463
meet	-4464
meke	-4465
meli	-4466
mend	-4467
meth	-4468
milp	-4469
mmor	-4470
mont	-4471
nate	-4472
nday	-4473
nder	-4474
ndes	-4475
nion	-4476
oday	-4477
oice	-4478
oing	-4479
oint	-4480
oman	-4481
omep	-4482
omew	-4483
onab	-4484
once	-4485
oner	-4486
ones	-4487
onom	-4488
onse	-4489
onta	-4490
ontc	-4491
oods	-4492
ooke	-4493
ooks	-4494
orad	-4495
oran	-4496
oria	-4497
orit	-4498
orks	-4499
Bri	-4500
Dri	-4501
New	-4502
Oka	-4503
aik	-4504
bur	-4505
cue	-4506
fri	-4507
gry	-4508
kil	-4509
lto	-4510
mai	-4511
rig	-4512
rix	-4513
rry	-4514
rue	-4515
url	-4516
urr	-4517
vai	-4518
▁Je	-4519
▁Ju	-4520
▁Od	-4521
▁Te	-4522
▁Tw	-4523
▁ri	-4524
Oakl	-4525
Thur	-4526
adem	-4527
alet	-4528
apan	-4529
bout	-4530
etai	-4531
euan	-4532
hili	-4533
hout	-4534
ilar	-4535
kawa	-4536
kson	-4537
mmer	-4538
moun	-4539
nfor	-4540
orno	-4541
orri	-4542
oser	-4543
osse	-4544
otat	-4545
otel	-4546
otti	-4547
oule	-4548
outh	-4549
outs	-4550
owar	-4551
ower	-4552
part	-4553
past	-4554
ping	-4555
pino	-4556
pizz	-4557
plea	-4558
plet	-4559
polo	-4560
pres	-4561
quar	-4562
quer	-4563
quet	-4564
quir	-4565
quit	-4566
ranc	-4567
rane	-4568
rang	-4569
rank	-4570
rast	-4571
rate	-4572
rats	-4573
reac	-4574
reak	-4575
rean	-4576
rect	-4577
requ	-4578
rese	-4579
resh	-4580
resp	-4581
rest	-4582
resu	-4583
rill	-4584
rime	-4585
rink	-4586
riqu	-4587
risi	-4588
roce	-4589
roup	-4590
sant	-4591
sday	-4592
sear	-4593
seat	-4594
seem	-4595
sell	-4596
sera	-4597
seri	-4598
seru	-4599
Aap	-4600
NON	-4601
NOT	-4602
Nap	-4603
Piz	-4604
Yea	-4605
ael	-4606
eap	-4607
eck	-4608
ggg	-4609
hap	-4610
piz	-4611
rob	-4612
sso	-4613
wel	-4614
▁Dy	-4615
▁im	-4616
AILU	-4617
Camp	-4618
Cong	-4619
Loun	-4620
Moun	-4621
Pamp	-4622
Pizz	-4623
ards	-4624
eese	-4625
elco	-4626
elpf	-4627
ield	-4628
lari	-4629
pany	-4630
righ	-4631
rish	-4632
robl	-4633
serv	-4634
sine	-4635
sint	-4636
sion	-4637
slot	-4638
sons	-4639
sser	-4640
stam	-4641
stan	-4642
star	-4643
stau	-4644
stay	-4645
stin	-4646
stli	-4647
stly	-4648
stor	-4649
stre	-4650
stro	-4651
syst	-4652
tali	-4653
tast	-4654
tega	-4655
tent	-4656
terf	-4657
tern	-4658
tert	-4659
than	-4660
that	-4661
thur	-4662
tine	-4663
tuck	-4664
uate	-4665
uebl	-4666
uest	-4667
ukil	-4668
ular	-4669
ults	-4670
ungd	-4671
unny	-4672
uran	-4673
usat	-4674
ussi	-4675
vale	-4676
vard	-4677
vely	-4678
venu	-4679
vera	-4680
vere	-4681
veri	-4682
vina	-4683
wing	-4684
yard	-4685
ying	-4686
yone	-4687
zing	-4688
zora	-4689
|>",	-4690
▁Aap	-4691
▁Abs	-4692
▁Act	-4693
▁Add	-4694
▁Afr	-4695
▁Alb	-4696
▁Ali	-4697
▁Als	-4698
▁Ame	-4699
Cup	-4700
ELE	-4701
Era	-4702
IFY	-4703
THA	-4704
rae	-4705
raz	-4706
sfu	-4707
▁Er	-4708
▁Eu	-4709
▁Ky	-4710
▁Ne	-4711
Chan	-4712
Dubl	-4713
Fair	-4714
ODBY	-4715
Rosi	-4716
alom	-4717
cces	-4718
cina	-4719
cust	-4720
ella	-4721
eple	-4722
fair	-4723
fort	-4724
full	-4725
gers	-4726
haba	-4727
hina	-4728
nert	-4729
okai	-4730
omic	-4731
orem	-4732
ossi	-4733
osso	-4734
peci	-4735
raps	-4736
uper	-4737
▁Ami	-4738
▁Ant	-4739
▁Ari	-4740
▁Asi	-4741
▁Asl	-4742
▁Asy	-4743
▁Bac	-4744
▁Bak	-4745
▁Bam	-4746
▁Ban	-4747
▁Baz	-4748
▁Bel	-4749
▁Ben	-4750
▁Ber	-4751
▁Bir	-4752
▁Bot	-4753
▁Bou	-4754
▁Bre	-4755
▁Bri	-4756
▁Cab	-4757
▁Cac	-4758
▁Cal	-4759
▁Car	-4760
▁Chi	-4761
▁Cho	-4762
▁Chu	-4763
▁Con	-4764
▁Coo	-4765
▁Cot	-4766
▁Cou	-4767
▁Cra	-4768
▁Cre	-4769
▁Cup	-4770
▁Das	-4771
▁Dic	-4772
▁Dri	-4773
▁Dum	-4774
▁Est	-4775
▁Eth	-4776
▁Fan	-4777
▁Fic	-4778
▁Fis	-4779
▁Fli	-4780
▁Fre	-4781
▁Fri	-4782
▁Fur	-4783
▁Fus	-4784
▁Gar	-4785
▁Gre	-4786
▁Gro	-4787
▁Gum	-4788
▁Hac	-4789
▁Hal	-4790
▁Han	-4791
▁Har	-4792
▁Hik	-4793
▁Hon	-4794
▁Hop	-4795
▁Hou	-4796
▁Hun	-4797
▁Ind	-4798
▁Ipo	-4799
ALT	-4800
Hik	-4801
Ipo	-4802
UCC	-4803
dok	-4804
ega	-4805
kiy	-4806
loc	-4807
mig	-4808
▁..	-4809
Bour	-4810
Camb	-4811
Fort	-4812
Yuan	-4813
aiki	-4814
alit	-4815
head	-4816
ialo	-4817
igan	-4818
ikun	-4819
ilik	-4820
ioch	-4821
ired	-4822
lete	-4823
oang	-4824
ourb	-4825
razi	-4826
redw	-4827
tino	-4828
▁Ang	-4829
▁Ani	-4830
▁Bep	-4831
▁Gio	-4832
▁Isl	-4833
▁Ita	-4834
▁Jac	-4835
▁Jap	-4836
▁Jud	-4837
▁Lan	-4838
▁Lat	-4839
▁Lem	-4840
▁Mak	-4841
▁Mar	-4842
▁Mat	-4843
▁Mau	-4844
▁Mcd	-4845
▁Med	-4846
▁Mex	-4847
▁Min	-4848
▁Mon	-4849
▁Mor	-4850
▁Mou	-4851
▁Mow	-4852
▁Nap	-4853
▁Nar	-4854
▁Nes	-4855
▁New	-4856
▁Nor	-4857
▁Oli	-4858
▁Ori	-4859
▁Pab	-4860
▁Pad	-4861
▁Pak	-4862
▁Pam	-4863
▁Pan	-4864
▁Pat	-4865
▁Ped	-4866
▁Pet	-4867
▁Piz	-4868
▁Pol	-4869
▁Raf	-4870
▁Roc	-4871
▁Roh	-4872
▁Ros	-4873
▁Rus	-4874
▁Sad	-4875
▁Sea	-4876
▁Sic	-4877
▁Sor	-4878
▁Spe	-4879
▁Ste	-4880
▁Sti	-4881
▁Sty	-4882
▁Sun	-4883
▁Sus	-4884
▁Tab	-4885
▁Tap	-4886
▁Tex	-4887
▁Tor	-4888
▁Wal	-4889
▁Wed	-4890
▁Wis	-4891
▁abo	-4892
▁act	-4893
▁add	-4894
▁aff	-4895
▁afo	-4896
▁aga	-4897
▁als	-4898
▁alw	-4899
AIL	-4900
Ant	-4901
lts	-4902
mpi	-4903
suc	-4904
Blac	-4905
Conc	-4906
Fren	-4907
Mats	-4908
Meik	-4909
Plac	-4910
Rock	-4911
Sund	-4912
Waln	-4913
Whet	-4914
abob	-4915
anag	-4916
barc	-4917
dona	-4918
earl	-4919
gies	-4920
gize	-4921
idge	-4922
isib	-4923
obst	-4924
plac	-4925
uded	-4926
udok	-4927
ully	-4928
vide	-4929
yani	-4930
▁Lob	-4931
▁McD	-4932
▁Mcc	-4933
▁apo	-4934
▁asi	-4935
▁att	-4936
▁ban	-4937
▁beg	-4938
▁bet	-4939
▁bou	-4940
▁bre	-4941
▁bun	-4942
▁bur	-4943
▁cal	-4944
▁cas	-4945
▁cat	-4946
▁cer	-4947
▁cit	-4948
▁cle	-4949
▁com	-4950
▁coo	-4951
▁cor	-4952
▁cou	-4953
▁cur	-4954
▁dar	-4955
▁dis	-4956
▁dre	-4957
▁dum	-4958
▁eit	-4959
▁ele	-4960
▁fam	-4961
▁fan	-4962
▁fav	-4963
▁fin	-4964
▁fir	-4965
▁fis	-4966
▁fon	-4967
▁foo	-4968
▁fou	-4969
▁fre	-4970
▁fri	-4971
▁fro	-4972
▁gar	-4973
▁gen	-4974
▁gir	-4975
▁gre	-4976
▁hal	-4977
▁hap	-4978
▁hav	-4979
▁hom	-4980
▁hoo	-4981
▁hop	-4982
▁hun	-4983
▁hus	-4984
▁ide	-4985
▁inc	-4986
▁ind	-4987
▁ine	-4988
▁inf	-4989
▁inq	-4990
▁isp	-4991
▁lat	-4992
▁lic	-4993
▁lim	-4994
▁liq	-4995
▁lit	-4996
▁lob	-4997
▁lon	-4998
▁loo	-4999
Abs	-5000
Afr	-5001
Buc	-5002
Lov	-5003
kaw	-5004
laz	-5005
nts	-5006
Acad	-5007
Aper	-5008
Span	-5009
aunt	-5010
cept	-5011
empt	-5012
okyo	-5013
olis	-5014
ondu	-5015
ppre	-5016
saka	-5017
trop	-5018
uess	-5019
ugen	-5020
wark	-5021
▁Buc	-5022
▁Lov	-5023
▁Pla	-5024
▁Suc	-5025
▁lun	-5026
▁mad	-5027
▁mak	-5028
▁mar	-5029
▁met	-5030
▁min	-5031
▁mon	-5032
▁moo	-5033
▁mor	-5034
▁mou	-5035
▁mus	-5036
▁nat	-5037
▁num	-5038
▁off	-5039
▁onl	-5040
▁oth	-5041
▁par	-5042
▁pic	-5043
▁piz	-5044
▁ple	-5045
▁ram	-5046
▁ran	-5047
▁rea	-5048
▁rec	-5049
▁reg	-5050
▁req	-5051
▁rev	-5052
▁ris	-5053
▁roo	-5054
▁sal	-5055
▁sec	-5056
▁sel	-5057
▁sev	-5058
▁sho	-5059
▁sit	-5060
▁sor	-5061
▁sou	-5062
▁spe	-5063
▁ste	-5064
▁sty	-5065
▁sug	-5066
▁sup	-5067
▁sus	-5068
▁tab	-5069
▁tac	-5070
▁thi	-5071
▁tho	-5072
▁tim	-5073
▁toa	-5074
▁tod	-5075
▁tom	-5076
▁tow	-5077
▁typ	-5078
▁var	-5079
▁ven	-5080
▁vis	-5081
▁wan	-5082
▁wed	-5083
▁wee	-5084
▁wen	-5085
▁wer	-5086
▁whi	-5087
▁wis	-5088
▁wit	-5089
▁wou	-5090
▁yea	-5091
Alame	-5092
Antio	-5093
Belot	-5094
Benni	-5095
Berke	-5096
CCESS	-5097
Cambo	-5098
Contr	-5099
legr	-5100
viou	-5101
yaki	-5102
Bazil	-5103
Corre	-5104
ELECT	-5105
FAILU	-5106
FFIRM	-5107
Filip	-5108
Furus	-5109
Medit	-5110
NFIRM	-5111
NTENT	-5112
ODBYE	-5113
Petal	-5114
Pleas	-5115
Sound	-5116
Szche	-5117
Table	-5118
Thurs	-5119
Union	-5120
ables	-5121
abobs	-5122
acing	-5123
actly	-5124
adise	-5125
adiso	-5126
after	-5127
ailed	-5128
akaya	-5129
alenc	-5130
aliti	-5131
aloma	-5132
aluma	-5133
aming	-5134
amino	-5135
amona	-5136
ampbe	-5137
anami	-5138
ander	-5139
anged	-5140
anges	-5141
anish	-5142
antan	-5143
anted	-5144
anton	-5145
apore	-5146
arbec	-5147
arget	-5148
ariet	-5149
artic	-5150
ascom	-5151
aster	-5152
astri	-5153
atefu	-5154
ather	-5155
ating	-5156
ative	-5157
atter	-5158
attor	-5159
avail	-5160
ayang	-5161
aying	-5162
bably	-5163
being	-5164
belie	-5165
cadem	-5166
cader	-5167
ccept	-5168
ccess	-5169
chedu	-5170
chine	-5171
ching	-5172
ciate	-5173
ddres	-5174
derfu	-5175
dialo	-5176
dwood	-5177
earch	-5178
effer	-5179
eight	-5180
elena	-5181
eling	-5182
ellag	-5183
ement	-5184
emong	-5185
ences	-5186
endac	-5187
endat	-5188
endbe	-5189
endin	-5190
endre	-5191
ening	-5192
enter	-5193
entic	-5194
erate	-5195
erent	-5196
erest	-5197
error	-5198
eruan	-5199
escri	-5200
esome	-5201
estau	-5202
ester	-5203
etail	-5204
eting	-5205
ettin	-5206
exact	-5207
examp	-5208
extra	-5209
ferab	-5210
feren	-5211
ferre	-5212
forad	-5213
gards	-5214
ggest	-5215
graph	-5216
hance	-5217
hoice	-5218
icate	-5219
ictor	-5220
iddle	-5221
ience	-5222
iffer	-5223
ilian	-5224
iliti	-5225
illie	-5226
ining	-5227
inner	-5228
innes	-5229
inthe	-5230
iovan	-5231
iquor	-5232
irfie	-5233
isine	-5234
istan	-5235
iting	-5236
ition	-5237
ively	-5238
izzer	-5239
keley	-5240
lable	-5241
larif	-5242
larly	-5243
lcoho	-5244
leasu	-5245
leted	-5246
liano	-5247
lices	-5248
lifor	-5249
light	-5250
lings	-5251
lizes	-5252
llent	-5253
lling	-5254
loser	-5255
losso	-5256
lower	-5257
lping	-5258
meric	-5259
milar	-5260
mmend	-5261
mmort	-5262
moder	-5263
mpire	-5264
nable	-5265
nigan	-5266
nyone	-5267
ocust	-5268
odian	-5269
ohner	-5270
olden	-5271
omana	-5272
oment	-5273
ometh	-5274
ommer	-5275
oncer	-5276
oncor	-5277
onder	-5278
onell	-5279
onfer	-5280
onfus	-5281
ontac	-5282
ontex	-5283
ontin	-5284
onven	-5285
oodle	-5286
ooked	-5287
opian	-5288
orant	-5289
orite	-5290
orner	-5291
orrow	-5292
ortal	-5293
ostli	-5294
ostly	-5295
otels	-5296
otent	-5297
other	-5298
ouldn	-5299
ounta	-5300
outsi	-5301
oward	-5302
owing	-5303
pdate	-5304
pecia	-5305
pecif	-5306
pensi	-5307
pling	-5308
point	-5309
pprec	-5310
press	-5311
quali	-5312
quare	-5313
quets	-5314
rants	-5315
rasto	-5316
ravag	-5317
reatl	-5318
refer	-5319
reser	-5320
rican	-5321
riced	-5322
rices	-5323
ricey	-5324
rient	-5325
rique	-5326
ritre	-5327
roces	-5328
rough	-5329
round	-5330
rther	-5331
rving	-5332
rying	-5333
serie	-5334
sible	-5335
sitas	-5336
stamp	-5337
start	-5338
still	-5339
sting	-5340
stoga	-5341
tainm	-5342
teran	-5343
terme	-5344
terno	-5345
terta	-5346
thers	-5347
tiona	-5348
tione	-5349
tions	-5350
tomor	-5351
treet	-5352
uanit	-5353
uated	-5354
ucina	-5355
udget	-5356
uding	-5357
ueblo	-5358
ugene	-5359
unate	-5360
unfor	-5361
urphy	-5362
urrit	-5363
usato	-5364
usera	-5365
useru	-5366
usine	-5367
utent	-5368
vered	-5369
water	-5370
xcell	-5371
|>","	-5372
▁Aapp	-5373
▁Acad	-5374
▁Alam	-5375
▁Anik	-5376
▁Aper	-5377
▁Aven	-5378
▁Bamb	-5379
▁Biry	-5380
▁Bist	-5381
▁Blac	-5382
▁Bour	-5383
▁Bras	-5384
▁Brun	-5385
▁Cact	-5386
▁Cali	-5387
▁Camb	-5388
▁Camp	-5389
▁Cany	-5390
▁Carl	-5391
▁Celi	-5392
▁Cent	-5393
▁Chan	-5394
▁Ches	-5395
▁Chet	-5396
▁Chin	-5397
▁Chun	-5398
▁Clar	-5399
▁Conc	-5400
▁Conf	-5401
▁Cont	-5402
▁Cost	-5403
▁Cour	-5404
▁Cree	-5405
▁Cuis	-5406
▁Dubl	-5407
▁Dump	-5408
▁Fair	-5409
▁Fili	-5410
▁Flow	-5411
▁Fost	-5412
▁Frem	-5413
▁Fren	-5414
▁Fres	-5415
▁Gard	-5416
▁Gast	-5417
▁Gold	-5418
▁Gran	-5419
▁Gree	-5420
▁Harb	-5421
▁Howe	-5422
▁Huki	-5423
▁Izak	-5424
▁Juan	-5425
▁Kore	-5426
▁Loun	-5427
▁Marh	-5428
▁Mark	-5429
▁Mart	-5430
▁Mate	-5431
▁Mats	-5432
▁Meik	-5433
▁Merl	-5434
▁Merm	-5435
▁Midd	-5436
▁Mili	-5437
▁Mill	-5438
▁Milp	-5439
▁Moun	-5440
▁Nood	-5441
▁Oakl	-5442
▁Odor	-5443
▁Pamp	-5444
▁Past	-5445
▁Perh	-5446
▁Plac	-5447
▁Plea	-5448
▁Rafa	-5449
▁Raso	-5450
▁Redw	-5451
▁Rist	-5452
▁Rock	-5453
▁Rosi	-5454
▁Seaf	-5455
▁Shat	-5456
▁Sich	-5457
▁Sing	-5458
▁Span	-5459
▁Spic	-5460
▁Suki	-5461
▁Sund	-5462
▁Taiw	-5463
▁Tele	-5464
▁Than	-5465
▁Thur	-5466
▁Toky	-5467
▁Waln	-5468
▁Wedn	-5469
▁alon	-5470
▁amon	-5471
▁anym	-5472
▁anyw	-5473
▁assi	-5474
▁besi	-5475
▁bore	-5476
▁casu	-5477
▁cate	-5478
▁chan	-5479
▁char	-5480
▁cher	-5481
▁choo	-5482
▁cook	-5483
▁cour	-5484
▁cuis	-5485
▁drin	-5486
▁dump	-5487
▁econ	-5488
▁eith	-5489
▁enou	-5490
▁even	-5491
▁ever	-5492
▁exce	-5493
▁fair	-5494
▁fami	-5495
▁fant	-5496
▁foll	-5497
▁gard	-5498
▁gett	-5499
▁howe	-5500
▁hung	-5501
▁incl	-5502
▁inex	-5503
▁inqu	-5504
▁inst	-5505
▁issu	-5506
▁line	-5507
▁liqu	-5508
▁litt	-5509
▁mean	-5510
▁metr	-5511
▁milp	-5512
▁mont	-5513
▁moun	-5514
▁myse	-5515
▁nece	-5516
▁neit	-5517
▁pear	-5518
▁peop	-5519
▁perf	-5520
▁pers	-5521
▁pizz	-5522
▁plea	-5523
▁poep	-5524
▁pref	-5525
▁pret	-5526
▁prev	-5527
▁pric	-5528
▁quer	-5529
▁quit	-5530
▁reac	-5531
▁real	-5532
▁reas	-5533
▁reco	-5534
▁requ	-5535
▁risi	-5536
▁seem	-5537
▁sell	-5538
▁sett	-5539
▁stor	-5540
▁supp	-5541
▁tast	-5542
▁than	-5543
▁thei	-5544
▁ther	-5545
▁thin	-5546
▁thou	-5547
▁thre	-5548
▁twel	-5549
▁veri	-5550
▁wast	-5551
▁wedn	-5552
Aappak	-5553
Absint	-5554
Antone	-5555
Breakf	-5556
Butter	-5557
Calist	-5558
Confir	-5559
Cupert	-5560
Ethiop	-5561
Fortun	-5562
Freshw	-5563
Gastro	-5564
Number	-5565
Pakist	-5566
Singap	-5567
acArth	-5568
aciend	-5569
airfie	-5570
akadai	-5571
akfast	-5572
alcoho	-5573
anaged	-5574
anning	-5575
antana	-5576
antast	-5577
anting	-5578
arding	-5579
ariety	-5580
articu	-5581
artine	-5582
arving	-5583
astell	-5584
astern	-5585
astrob	-5586
ateful	-5587
ations	-5588
begina	-5589
beginc	-5590
begind	-5591
beginl	-5592
beginr	-5593
begint	-5594
beginu	-5595
breakf	-5596
cadero	-5597
cation	-5598
cessar	-5599
cheuan	-5600
cluded	-5601
coholi	-5602
conven	-5603
derate	-5604
derful	-5605
dering	-5606
eature	-5607
editer	-5608
edwood	-5609
eeling	-5610
elcome	-5611
elices	-5612
elping	-5613
endint	-5614
endres	-5615
endtar	-5616
ention	-5617
entuck	-5618
erable	-5619
erfect	-5620
erican	-5621
erlion	-5622
errors	-5623
ertino	-5624
eserve	-5625
esteds	-5626
estion	-5627
etails	-5628
extrav	-5629
fectly	-5630
fering	-5631
fornia	-5632
fortun	-5633
friend	-5634
hether	-5635
hinese	-5636
hwater	-5637
ically	-5638
ictory	-5639
illbra	-5640
illies	-5641
illing	-5642
imilar	-5643
ingame	-5644
inking	-5645
iopian	-5646
istani	-5647
itable	-5648
itchen	-5649
iteria	-5650
ithout	-5651
larify	-5652
lcohol	-5653
lement	-5654
levard	-5655
lizing	-5656
logies	-5657
logize	-5658
lossom	-5659
lpitas	-5660
lright	-5661
mation	-5662
merica	-5663
mpress	-5664
nderwe	-5665
nesday	-5666
nother	-5667
nwraps	-5668
ohnert	-5669
omical	-5670
ompany	-5671
omplet	-5672
onably	-5673
oncern	-5674
onduct	-5675
onella	-5676
onerid	-5677
ongras	-5678
onight	-5679
ontact	-5680
ontext	-5681
onveni	-5682
opolis	-5683
opyard	-5684
ositas	-5685
osting	-5686
othing	-5687
outher	-5688
ppoint	-5689
ptions	-5690
ranean	-5691
rattor	-5692
raunts	-5693
raving	-5694
reatly	-5695
respon	-5696
result	-5697
riends	-5698
ritrea	-5699
riving	-5700
rocess	-5701
search	-5702
served	-5703
server	-5704
sibili	-5705
stance	-5706
stuser	-5707
tainly	-5708
terest	-5709
ternat	-5710
tional	-5711
tunate	-5712
turant	-5713
uarter	-5714
uation	-5715
unable	-5716
unnyva	-5717
update	-5718
urgers	-5719
urrito	-5720
urther	-5721
usband	-5722
userac	-5723
userut	-5724
usines	-5725
utterf	-5726
verage	-5727
verest	-5728
wanese	-5729
weight	-5730
xander	-5731
ything	-5732
zilian	-5733
▁Alame	-5734
▁Alter	-5735
▁Antio	-5736
▁Barbe	-5737
▁Bazil	-5738
▁Belot	-5739
▁Benni	-5740
▁Berke	-5741
▁Botte	-5742
▁Cambo	-5743
▁Chine	-5744
▁Chung	-5745
▁Contr	-5746
▁Corre	-5747
▁Embar	-5748
▁Filip	-5749
▁Franc	-5750
▁Frank	-5751
▁Furus	-5752
▁Jacks	-5753
▁Malab	-5754
▁Malay	-5755
▁Medit	-5756
▁Moder	-5757
▁Parad	-5758
▁Paris	-5759
▁Parkw	-5760
▁Petal	-5761
▁Pleas	-5762
▁Ranch	-5763
▁Reser	-5764
▁Roadh	-5765
▁Sanch	-5766
▁Somep	-5767
▁Sound	-5768
▁Szche	-5769
▁Taver	-5770
▁Thurs	-5771
▁afore	-5772
▁alter	-5773
▁alway	-5774
▁anyth	-5775
▁attem	-5776
▁avail	-5777
▁calle	-5778
▁corre	-5779
▁disco	-5780
▁examp	-5781
▁expen	-5782
▁gener	-5783
▁guest	-5784
▁helpf	-5785
▁indic	-5786
▁infor	-5787
▁licen	-5788
▁moder	-5789
▁nearb	-5790
▁neces	-5791
▁neith	-5792
▁outsi	-5793
▁perfe	-5794
▁posse	-5795
▁possi	-5796
▁prefe	-5797
▁prett	-5798
▁previ	-5799
▁probl	-5800
▁restr	-5801
▁restu	-5802
▁secon	-5803
▁somep	-5804
▁somew	-5805
▁speci	-5806
▁start	-5807
▁steak	-5808
▁succe	-5809
▁sucke	-5810
▁suggg	-5811
▁tomor	-5812
▁unfor	-5813
▁verif	-5814
▁worri	-5815
Burling	-5816
Califor	-5817
Lemongr	-5818
Rocknwr	-5819
acienda	-5820
ailable	-5821
alities	-5822
anquets	-5823
aporean	-5824
arbecue	-5825
arching	-5826
arisian	-5827
astello	-5828
astuser	-5829
ategory	-5830
aurants	-5831
avorite	-5832
beginac	-5833
beginbe	-5834
beginin	-5835
beginre	-5836
cDonald	-5837
ccepted	-5838
ccessfu	-5839
cdonald	-5840
cessful	-5841
cluding	-5842
conveni	-5843
ddition	-5844
ellagio	-5845
endcont	-5846
endlast	-5847
enduser	-5848
entucky	-5849
estedsl	-5850
ettinad	-5851
ferable	-5852
garding	-5853
gestion	-5854
hattuck	-5855
ializes	-5856
illmore	-5857
inexpen	-5858
iovanni	-5859
isiting	-5860
itation	-5861
ituated	-5862
izzeria	-5863
leasure	-5864
lfriend	-5865
lingame	-5866
nything	-5867
onfirme	-5868
ongrass	-5869
ongrats	-5870
ontaine	-5871
ontcare	-5872
outhern	-5873
pecific	-5874
pensive	-5875
perfect	-5876
reaming	-5877
ription	-5878
riteria	-5879
serving	-5880
taliano	-5881
terance	-5882
tertain	-5883
ukiyaki	-5884
usually	-5885
vations	-5886
▁Aappak	-5887
▁Absint	-5888
▁Antone	-5889
▁Autent	-5890
▁Barbec	-5891
▁Boulev	-5892
▁Breakf	-5893
▁Butter	-5894
▁Calist	-5895
▁Commer	-5896
▁Confir	-5897
▁Cupert	-5898
▁Ethiop	-5899
▁Frankl	-5900
▁Freshw	-5901
▁Gastro	-5902
▁Immort	-5903
▁Jeffer	-5904
▁Pakist	-5905
▁Peruan	-5906
▁Prefer	-5907
▁Rohner	-5908
▁Sanche	-5909
▁Singap	-5910
▁Wester	-5911
▁afford	-5912
▁alcoho	-5913
▁apprec	-5914
▁boulev	-5915
▁breakf	-5916
▁confer	-5917
▁contin	-5918
▁costli	-5919
▁differ	-5920
▁excell	-5921
▁helpfu	-5922
▁necess	-5923
▁potent	-5924
▁provid	-5925
▁recomm	-5926
▁reserv	-5927
▁schedu	-5928
▁someth	-5929
▁specia	-5930
▁update	-5931
alaysian	-5932
asonably	-5933
beginint	-5934
beginres	-5935
begintar	-5936
cessfull	-5937
cription	-5938
eakhouse	-5939
elegraph	-5940
endation	-5941
entioned	-5942
ertainly	-5943
fternoon	-5944
ializing	-5945
icularly	-5946
innesota	-5947
istorant	-5948
ituation	-5949
mitation	-5950
natively	-5951
ollowing	-5952
omething	-5953
omewhere	-5954
oncerned	-5955
onfusion	-5956
pologies	-5957
pologize	-5958
question	-5959
rancisco	-5960
rattoria	-5961
ravagant	-5962
sevation	-5963
sistance	-5964
staurant	-5965
terested	-5966
xcellent	-5967
▁Brasser	-5968
▁Burling	-5969
▁Califor	-5970
▁Lemongr	-5971
▁MacArth	-5972
▁Rocknwr	-5973
▁Souther	-5974
▁afforad	-5975
▁afterno	-5976
▁appoint	-5977
▁busines	-5978
▁conveni	-5979
▁inexpen	-5980
▁interme	-5981
▁mention	-5982
▁metropo	-5983
▁particu	-5984
▁restrau	-5985
▁underwe	-5986
available	-5987
barcadero	-5988
begincont	-5989
beginlast	-5990
beginuser	-5991
cessfully	-5992
conomical	-5993
editerran	-5994
formation	-5995
irlfriend	-5996
iscovered	-5997
istorante	-5998
mentioned	-5999
onfirming	-6000
questedsl	-6001
servation	-6002
successfu	-6003
userutter	-6004
verything	-6005
▁Dumpling	-6006
▁Specific	-6007
▁Stonerid	-6008
▁confirme	-6009
▁intermed	-6010
▁preferab	-6011
▁preferre	-6012
▁sugggest	-6013
▁wonderfu	-6014
estaurants	-6015
▁entertain	-6016
▁inconveni	-6017
▁possibili	-6018
dRestaurant	-6019
eRestaurant	-6020
restaurants	-6021
uccessfully	-6022
commendation	-6023
dRestaurants	-6024
endrequested	-6025
nfortunately	-6026
orementioned	-6027
questedslots	-6028
veRestaurant	-6029
▁Alternative	-6030
▁successfull	-6031
▁unsuccessfu	-6032
lastuserutter	-6033
beginrequested	-6034
indRestaurants	-6035
serveRestaurant	-6036
e	-6037
▁	-6038
t	-6039
a	-6040
n	-6041
s	-6042
|	-6043
r	-6044
i	-6045
o	-6046
u	-6047
>	-6048
d	-6049
<	-6050
l	-6051
c	-6052
h	-6053
g	-6054
m	-6055
y	-6056
b	-6057
R	-6058
f	-6059
p	-6060
-	-6061
.	-6062
^	-6063
"	-6064
I	-6065
v	-6066
k	-6067
,	-6068
w	-6069
F	-6070
1	-6071
?	-6072
0	-6073
_	-6074
S	-6075
T	-6076
~	-6077
M	-6078
O	-6079
C	-6080
N	-6081
x	-6082
E	-6083
A	-6084
'	-6085
2	-6086
W	-6087
P	-6088
5	-6089
3	-6090
:	-6091
Y	-6092
4	-6093
B	-6094
z	-6095
D	-6096
7	-6097
6	-6098
U	-6099
H	-6100
8	-6101
9	-6102
G	-6103
q	-6104
Q	-6105
L	-6106
J	-6107
&	-6108
K	-6109
